<unk>	0
<s>	0
</s>	0
en	-0
er	-1
ch	-2
▁d	-3
in	-4
ie	-5
▁w	-6
un	-7
▁s	-8
ich	-9
▁e	-10
an	-11
st	-12
as	-13
▁m	-14
au	-15
ei	-16
▁die	-17
▁ein	-18
▁un	-19
ge	-20
on	-21
te	-22
ir	-23
▁S	-24
▁h	-25
▁n	-26
ar	-27
ll	-28
▁v	-29
▁i	-30
▁z	-31
es	-32
▁das	-33
ten	-34
▁und	-35
▁D	-36
gen	-37
▁A	-38
hr	-39
▁W	-40
▁b	-41
it	-42
al	-43
▁k	-44
▁zu	-45
sch	-46
▁wir	-47
em	-48
▁in	-49
or	-50
ach	-51
▁M	-52
▁der	-53
at	-54
▁au	-55
ab	-56
▁I	-57
ein	-58
▁f	-59
den	-60
▁ist	-61
▁E	-62
de	-63
▁g	-64
ier	-65
der	-66
icht	-67
▁G	-68
▁U	-69
ur	-70
lich	-71
▁B	-72
ro	-73
am	-74
▁ge	-75
▁es	-76
▁ich	-77
▁K	-78
el	-79
sen	-80
▁Sie	-81
ung	-82
▁Un	-83
ig	-84
▁P	-85
eit	-86
le	-87
ber	-88
men	-89
▁T	-90
▁von	-91
▁den	-92
ür	-93
▁L	-94
▁nicht	-95
om	-96
▁sie	-97
nen	-98
is	-99
ut	-100
et	-101
▁F	-102
▁an	-103
▁dies	-104
▁Und	-105
kt	-106
▁er	-107
um	-108
ion	-109
▁mit	-110
us	-111
▁dass	-112
ann	-113
ben	-114
▁-	-115
▁auf	-116
ter	-117
▁ver	-118
eh	-119
▁eine	-120
eu	-121
▁hab	-122
▁R	-123
ck	-124
▁--	-125
als	-126
ind	-127
▁so	-128
▁war	-129
enn	-130
ahr	-131
▁H	-132
▁N	-133
▁als	-134
▁hat	-135
ft	-136
▁sch	-137
re	-138
▁V	-139
ste	-140
▁J	-141
▁sich	-142
ff	-143
▁Z	-144
▁wie	-145
▁sind	-146
▁man	-147
▁uns	-148
▁j	-149
▁be	-150
il	-151
all	-152
▁Ich	-153
tw	-154
über	-155
ol	-156
▁haben	-157
▁Wir	-158
ön	-159
▁o	-160
isch	-161
ag	-162
▁für	-163
▁aus	-164
sten	-165
▁um	-166
▁In	-167
ehr	-168
▁Es	-169
▁l	-170
och	-171
▁was	-172
▁p	-173
▁C	-174
▁im	-175
hl	-176
▁ab	-177
▁Pro	-178
▁Das	-179
▁da	-180
▁Die	-181
ik	-182
▁kön	-183
and	-184
▁all	-185
oll	-186
▁einen	-187
▁St	-188
▁über	-189
os	-190
▁wer	-191
zu	-192
ent	-193
eine	-194
iel	-195
bt	-196
▁O	-197
igen	-198
▁t	-199
ehen	-200
elt	-201
aus	-202
▁dem	-203
▁1	-204
anz	-205
rei	-206
be	-207
▁"	-208
ieren	-209
▁Jahr	-210
än	-211
stell	-212
▁wenn	-213
▁her	-214
▁nach	-215
▁können	-216
ra	-217
mer	-218
iert	-219
▁Gen	-220
eil	-221
▁nur	-222
sp	-223
ass	-224
ess	-225
ill	-226
achen	-227
▁diese	-228
▁dar	-229
▁hier	-230
▁oder	-231
▁werden	-232
▁Aut	-233
▁bei	-234
▁aber	-235
▁kann	-236
ort	-237
▁des	-238
▁ihr	-239
▁Ver	-240
▁unser	-241
00	-242
ige	-243
lau	-244
ner	-245
br	-246
etz	-247
▁wird	-248
pp	-249
fen	-250
uch	-251
▁An	-252
▁dann	-253
▁Ein	-254
ungen	-255
▁einem	-256
iv	-257
ien	-258
unkt	-259
▁Aber	-260
ne	-261
ru	-262
so	-263
ick	-264
▁Te	-265
▁mein	-266
im	-267
rau	-268
uss	-269
hnen	-270
ommen	-271
▁auch	-272
▁ganz	-273
▁ander	-274
üs	-275
ionen	-276
ät	-277
▁Ar	-278
▁zw	-279
acht	-280
▁etw	-281
rü	-282
ibt	-283
eute	-284
sam	-285
▁Al	-286
▁Re	-287
▁le	-288
▁Sch	-289
▁gibt	-290
▁noch	-291
▁Men	-292
▁Welt	-293
▁Er	-294
▁je	-295
heit	-296
eiten	-297
▁sehr	-298
ht	-299
rie	-300
urch	-301
▁sein	-302
bl	-303
se	-304
lle	-305
▁Be	-306
gt	-307
og	-308
äch	-309
agen	-310
fach	-311
ffen	-312
tern	-313
▁ste	-314
▁vor	-315
ation	-316
▁sehen	-317
ze	-318
ken	-319
▁mich	-320
ischen	-321
▁dieser	-322
arb	-323
ern	-324
▁gen	-325
▁zum	-326
schen	-327
▁mehr	-328
▁hatten	-329
end	-330
off	-331
▁wo	-332
esig	-333
▁dam	-334
▁etwas	-335
▁machen	-336
scha	-337
▁müs	-338
▁neu	-339
▁wur	-340
▁2	-341
ang	-342
▁En	-343
▁kl	-344
etzt	-345
▁wür	-346
issen	-347
▁einer	-348
mt	-349
ün	-350
▁Ges	-351
▁also	-352
▁Ihnen	-353
▁müssen	-354
ap	-355
fü	-356
▁r	-357
age	-358
ist	-359
roß	-360
▁Ge	-361
▁Desig	-362
▁schon	-363
du	-364
▁bis	-365
▁ent	-366
▁woll	-367
▁Autos	-368
▁durch	-369
▁keine	-370
stellen	-371
▁–	-372
tet	-373
und	-374
▁mir	-375
▁Also	-376
▁habe	-377
lichen	-378
▁diesem	-379
are	-380
chn	-381
ekt	-382
▁Or	-383
▁re	-384
dern	-385
▁alle	-386
▁viel	-387
▁einfach	-388
hn	-389
lu	-390
ob	-391
des	-392
ähr	-393
▁am	-394
▁sp	-395
ingen	-396
schie	-397
stoff	-398
▁damit	-399
▁hatte	-400
▁wurde	-401
▁Menschen	-402
▁—	-403
hen	-404
her	-405
ing	-406
▁en	-407
ungs	-408
▁Mon	-409
▁vie	-410
▁zur	-411
assen	-412
klich	-413
twick	-414
▁unter	-415
lie	-416
ren	-417
▁Sp	-418
ache	-419
fahr	-420
hlen	-421
ital	-422
such	-423
▁Ihr	-424
▁fin	-425
▁gab	-426
ehmen	-427
ische	-428
▁groß	-429
▁kein	-430
kommen	-431
tz	-432
han	-433
utz	-434
▁Ko	-435
blem	-436
▁kom	-437
▁sag	-438
▁Zeit	-439
▁glau	-440
schaft	-441
▁heraus	-442
▁wirklich	-443
he	-444
ke	-445
hal	-446
mal	-447
chen	-448
itte	-449
keit	-450
▁Bei	-451
▁soll	-452
▁Leute	-453
▁waren	-454
pt	-455
dem	-456
gan	-457
gel	-458
wer	-459
zeu	-460
▁Sta	-461
glich	-462
▁Mill	-463
▁muss	-464
▁zwei	-465
."	-466
ok	-467
ot	-468
▁♪	-469
aum	-470
▁So	-471
▁fü	-472
ande	-473
▁Man	-474
▁drei	-475
▁wissen	-476
ul	-477
▁Um	-478
▁mö	-479
▁st	-480
▁Bil	-481
▁mal	-482
eiter	-483
leich	-484
▁weil	-485
▁Techn	-486
▁jetzt	-487
▁unsere	-488
▁Problem	-489
eg	-490
kl	-491
ahl	-492
art	-493
hle	-494
▁Aus	-495
▁Kon	-496
▁arb	-497
▁bes	-498
▁gem	-499
▁kon	-500
aufen	-501
esser	-502
sammen	-503
▁immer	-504
▁zusammen	-505
ah	-506
iz	-507
pro	-508
▁Br	-509
iger	-510
llen	-511
schl	-512
▁Was	-513
▁hin	-514
achte	-515
▁Wenn	-516
▁verw	-517
▁Gesch	-518
▁alles	-519
▁meine	-520
ic	-521
ant	-522
det	-523
hin	-524
itt	-525
lug	-526
yst	-527
▁Gr	-528
olog	-529
rück	-530
▁gew	-531
ollar	-532
unden	-533
ystem	-534
▁Raum	-535
▁ihre	-536
▁wahr	-537
ichtig	-538
▁Sache	-539
▁eigen	-540
unktion	-541
▁Jahren	-542
▁diesen	-543
qu	-544
bar	-545
cht	-546
ett	-547
ure	-548
▁Zu	-549
▁wä	-550
eben	-551
eise	-552
ität	-553
asser	-554
liche	-555
▁Team	-556
▁Jahre	-557
▁würde	-558
▁Dollar	-559
▁wieder	-560
▁anderen	-561
ay	-562
fl	-563
nt	-564
aar	-565
for	-566
nte	-567
ßen	-568
▁Da	-569
chte	-570
ment	-571
▁Gel	-572
▁pro	-573
▁wen	-574
▁zei	-575
andel	-576
ganis	-577
orden	-578
▁dazu	-579
▁geht	-580
apital	-581
▁Genom	-582
▁geben	-583
me	-584
är	-585
ats	-586
ger	-587
omp	-588
ppe	-589
egen	-590
hren	-591
ware	-592
▁Der	-593
▁For	-594
▁Vor	-595
▁Wie	-596
▁bek	-597
▁ges	-598
▁jem	-599
genie	-600
ilien	-601
▁Proj	-602
▁Proz	-603
▁klein	-604
▁sagen	-605
▁ersten	-606
▁glaube	-607
▁Ingenie	-608
fe	-609
gr	-610
ho	-611
ma	-612
äu	-613
akt	-614
auf	-615
bst	-616
ert	-617
est	-618
von	-619
▁Ti	-620
laub	-621
nten	-622
▁Art	-623
▁beg	-624
▁son	-625
euten	-626
▁Bild	-627
▁brau	-628
▁paar	-629
ftware	-630
teress	-631
▁genau	-632
▁heute	-633
▁Design	-634
▁besser	-635
▁dieses	-636
▁weiter	-637
schieden	-638
▁versuch	-639
ternehmen	-640
▁Designer	-641
▁funktion	-642
zä	-643
ös	-644
eln	-645
mus	-646
ock	-647
zie	-648
▁Au	-649
▁Di	-650
▁Ha	-651
▁br	-652
amen	-653
ativ	-654
inge	-655
nell	-656
▁Nun	-657
▁bet	-658
▁lie	-659
▁sel	-660
▁ung	-661
fahrt	-662
mlich	-663
ruppe	-664
▁denn	-665
▁dort	-666
igkeit	-667
lugzeu	-668
▁Kohle	-669
▁Leben	-670
▁ausge	-671
▁eines	-672
▁viele	-673
▁Leuten	-674
▁andere	-675
▁gleich	-676
▁nichts	-677
▁würden	-678
▁zurück	-679
ennstoff	-680
▁darüber	-681
▁entwick	-682
ep	-683
fg	-684
op	-685
tr	-686
ade	-687
kay	-688
kte	-689
ver	-690
▁19	-691
▁De	-692
▁Ma	-693
gend	-694
unst	-695
▁nie	-696
▁tun	-697
anden	-698
ausen	-699
▁Auto	-700
▁Frau	-701
▁Gene	-702
▁neue	-703
▁pass	-704
ierung	-705
▁Beisp	-706
▁Dinge	-707
▁daran	-708
▁davon	-709
▁sagte	-710
amilien	-711
▁meiner	-712
▁schnell	-713
SA	-714
ate	-715
eiß	-716
ite	-717
lan	-718
zen	-719
▁Ex	-720
▁Pr	-721
aten	-722
eist	-723
rach	-724
ünst	-725
▁Ide	-726
▁Mar	-727
▁ber	-728
▁bin	-729
affen	-730
merik	-731
▁unge	-732
▁vier	-733
atsäch	-734
denken	-735
▁leben	-736
lleicht	-737
▁Amerik	-738
▁Wasser	-739
▁einige	-740
▁wollen	-741
▁unglaub	-742
▁Software	-743
atsächlich	-744
co	-745
fä	-746
ör	-747
▁3	-748
▁5	-749
▁Ü	-750
000	-751
agt	-752
att	-753
ckt	-754
deu	-755
inn	-756
ler	-757
ord	-758
urz	-759
ute	-760
ßer	-761
▁Ab	-762
▁Kl	-763
▁Ne	-764
▁To	-765
▁ja	-766
anke	-767
eite	-768
icro	-769
soft	-770
welt	-771
▁Arb	-772
▁Chr	-773
▁Her	-774
▁ins	-775
▁wel	-776
ennen	-777
fghan	-778
ichte	-779
▁erst	-780
▁erzä	-781
▁wäre	-782
liegen	-783
stehen	-784
twickl	-785
▁Micro	-786
▁Produ	-787
▁werde	-788
▁Gruppe	-789
▁einmal	-790
▁finden	-791
▁jemand	-792
▁möchte	-793
▁verwen	-794
▁worden	-795
▁Kapital	-796
▁Organis	-797
▁Projekt	-798
▁gemacht	-799
▁Beispiel	-800
▁arbeiten	-801
▁Microsoft	-802
▁Technolog	-803
▁Ingenieure	-804
▁vielleicht	-805
di	-806
if	-807
ss	-808
ank	-809
atz	-810
bau	-811
che	-812
ell	-813
enz	-814
erk	-815
für	-816
gar	-817
hem	-818
ück	-819
▁10	-820
▁Im	-821
▁We	-822
▁ir	-823
▁se	-824
abei	-825
eich	-826
fähr	-827
iebe	-828
ogen	-829
schr	-830
uter	-831
▁New	-832
▁Tag	-833
▁nun	-834
under	-835
▁Land	-836
▁lang	-837
▁Über	-838
schein	-839
stellt	-840
▁Funkt	-841
▁Unter	-842
▁einge	-843
▁erste	-844
▁ihnen	-845
▁kommt	-846
▁sogar	-847
omputer	-848
▁Arbeit	-849
▁Umwelt	-850
▁eigenen	-851
▁sondern	-852
▁Entwickl	-853
▁Familien	-854
▁Funktionen	-855
▁Unternehmen	-856
▁tatsächlich	-857
▁verschieden	-858
alt	-859
amm	-860
eid	-861
hil	-862
igt	-863
iss	-864
nis	-865
per	-866
öff	-867
▁Lu	-868
▁nä	-869
auer	-870
▁Lös	-871
▁ger	-872
▁mei	-873
alten	-874
eiden	-875
ikett	-876
ittel	-877
änder	-878
▁Geld	-879
▁Hait	-880
▁Hand	-881
▁Koch	-882
▁Nach	-883
▁Okay	-884
▁ange	-885
▁letz	-886
halten	-887
▁Kunst	-888
▁Menge	-889
▁bedeu	-890
▁dafür	-891
▁jeder	-892
▁jedes	-893
▁stell	-894
bringen	-895
▁Afghan	-896
▁ganzen	-897
▁sollte	-898
▁Flugzeu	-899
▁fliegen	-900
▁interess	-901
▁passiert	-902
▁ungefähr	-903
scheinlich	-904
▁herstellen	-905
▁unglaublich	-906
fr	-907
▁4	-908
▁Y	-909
ast	-910
isk	-911
kon	-912
äft	-913
▁Mo	-914
▁ob	-915
cker	-916
esen	-917
fall	-918
führ	-919
halb	-920
immt	-921
uren	-922
vest	-923
zeit	-924
zept	-925
▁All	-926
▁Mit	-927
▁Reg	-928
▁War	-929
▁Weg	-930
▁gut	-931
▁vom	-932
geben	-933
isten	-934
ragen	-935
reich	-936
▁Dies	-937
▁Luft	-938
▁Mein	-939
▁Mond	-940
▁Tipp	-941
▁näch	-942
▁verl	-943
achten	-944
ändern	-945
öglich	-946
▁Haiti	-947
▁Liebe	-948
▁besch	-949
▁dabei	-950
▁denke	-951
▁neuen	-952
▁reden	-953
tschaft	-954
▁Sachen	-955
▁gerade	-956
▁kaufen	-957
▁könnte	-958
▁selbst	-959
▁Amerika	-960
▁Prozent	-961
▁Stunden	-962
▁konnten	-963
▁meisten	-964
▁Computer	-965
▁bedeutet	-966
▁Millionen	-967
▁Raumfahrt	-968
▁wahrscheinlich	-969
..	-970
2-	-971
NS	-972
ak	-973
ey	-974
ja	-975
pf	-976
pr	-977
rö	-978
wo	-979
zt	-980
duz	-981
hlt	-982
hne	-983
mut	-984
nth	-985
olz	-986
rat	-987
son	-988
ust	-989
vor	-990
ünf	-991
ütz	-992
▁11	-993
▁CO	-994
▁Co	-995
▁dr	-996
▁lö	-997
atür	-998
elle	-999
ennt	-1000
iges	-1001
kten	-1002
olit	-1003
oren	-1004
rieb	-1005
sent	-1006
stru	-1007
ynth	-1008
▁App	-1009
▁Bau	-1010
▁Bet	-1011
▁DNS	-1012
▁Ent	-1013
▁Rei	-1014
▁bef	-1015
▁erw	-1016
▁hät	-1017
▁ihn	-1018
▁mus	-1019
arten	-1020
chten	-1021
leben	-1022
punkt	-1023
▁Teil	-1024
▁Them	-1025
▁doch	-1026
▁entw	-1027
▁etwa	-1028
▁ging	-1029
ichten	-1030
ierten	-1031
ischer	-1032
schied	-1033
ährend	-1034
▁Grund	-1035
▁Markt	-1036
▁indem	-1037
ortschr	-1038
▁Frauen	-1039
▁bereit	-1040
▁dachte	-1041
▁irgend	-1042
▁kommen	-1043
▁meinem	-1044
▁stehen	-1045
▁Brikett	-1046
▁Technik	-1047
▁nämlich	-1048
▁unserer	-1049
▁wichtig	-1050
▁schaffen	-1051
▁zwischen	-1052
▁versuchen	-1053
▁Geschichte	-1054
?"	-1055
Qu	-1056
ad	-1057
aß	-1058
ce	-1059
dt	-1060
id	-1061
lo	-1062
äl	-1063
ald	-1064
dig	-1065
gem	-1066
iar	-1067
ile	-1068
ive	-1069
lei	-1070
net	-1071
ork	-1072
rag	-1073
rün	-1074
tem	-1075
▁20	-1076
▁Ja	-1077
▁KA	-1078
▁Po	-1079
▁Qu	-1080
▁Se	-1081
▁Wo	-1082
▁co	-1083
▁de	-1084
▁gl	-1085
▁te	-1086
.000	-1087
alen	-1088
ante	-1089
auen	-1090
cken	-1091
erst	-1092
iere	-1093
ikro	-1094
ille	-1095
nerg	-1096
omob	-1097
rage	-1098
satz	-1099
spro	-1100
stau	-1101
unft	-1102
▁Auf	-1103
▁Ger	-1104
▁Kin	-1105
▁Vir	-1106
▁Zus	-1107
▁ben	-1108
▁bew	-1109
▁frü	-1110
▁get	-1111
▁kam	-1112
▁spä	-1113
▁zie	-1114
eitet	-1115
gesch	-1116
ielen	-1117
quenz	-1118
▁Haus	-1119
▁Hier	-1120
▁Woch	-1121
▁York	-1122
▁abge	-1123
▁eben	-1124
▁eins	-1125
▁gute	-1126
▁kurz	-1127
▁sage	-1128
▁seit	-1129
▁weiß	-1130
arbeit	-1131
einsam	-1132
▁Energ	-1133
▁Punkt	-1134
▁Stadt	-1135
▁Thema	-1136
▁Weise	-1137
▁aller	-1138
▁entde	-1139
▁lösen	-1140
▁macht	-1141
▁natür	-1142
▁warum	-1143
▁Beihil	-1144
▁Tipper	-1145
▁dessen	-1146
▁keinen	-1147
▁meinen	-1148
▁sagten	-1149
▁schrei	-1150
scheiden	-1151
▁Automob	-1152
▁Einfach	-1153
▁Milliar	-1154
▁glauben	-1155
▁großart	-1156
▁sollten	-1157
▁weniger	-1158
▁wollten	-1159
▁während	-1160
▁Fortschr	-1161
▁gemeinsam	-1162
▁verstehen	-1163
▁Brennstoff	-1164
▁Technologie	-1165
▁funktioniert	-1166
",	-1167
ov	-1168
xt	-1169
äh	-1170
äs	-1171
▁9	-1172
ale	-1173
bie	-1174
bil	-1175
eim	-1176
fol	-1177
iff	-1178
imm	-1179
sel	-1180
str	-1181
wir	-1182
zug	-1183
üge	-1184
▁Bo	-1185
▁DR	-1186
▁Me	-1187
▁NA	-1188
▁Tr	-1189
▁Zw	-1190
▁hö	-1191
▁na	-1192
ater	-1193
auft	-1194
aupt	-1195
inde	-1196
klus	-1197
ktur	-1198
nitt	-1199
ppen	-1200
▁200	-1201
▁Kom	-1202
▁Met	-1203
▁Ste	-1204
▁Stu	-1205
▁USA	-1206
▁Zuk	-1207
▁bem	-1208
▁grö	-1209
▁nah	-1210
▁rie	-1211
ammen	-1212
angen	-1213
anzen	-1214
icher	-1215
ierte	-1216
inden	-1217
innen	-1218
ismus	-1219
istan	-1220
okrat	-1221
weise	-1222
ächst	-1223
▁Holz	-1224
▁Idee	-1225
▁Ihre	-1226
▁Nutz	-1227
▁Plan	-1228
▁Wahl	-1229
▁Wahr	-1230
▁cool	-1231
▁fünf	-1232
▁jede	-1233
▁verb	-1234
▁verk	-1235
▁will	-1236
alität	-1237
fachen	-1238
öffent	-1239
önheit	-1240
▁Ander	-1241
▁Arten	-1242
▁Genen	-1243
▁Mikro	-1244
▁Nicht	-1245
▁aufge	-1246
▁darum	-1247
▁denen	-1248
▁finde	-1249
▁gegen	-1250
▁gehen	-1251
▁recht	-1252
▁wenig	-1253
ausende	-1254
▁Kinder	-1255
▁Kochbr	-1256
▁Wissen	-1257
▁damals	-1258
▁darauf	-1259
▁denken	-1260
▁gesagt	-1261
▁gingen	-1262
▁großen	-1263
▁nehmen	-1264
▁sicher	-1265
▁später	-1266
▁zeigen	-1267
schaffen	-1268
stellung	-1269
▁Prozess	-1270
▁Staaten	-1271
▁Zukunft	-1272
▁möglich	-1273
zustellen	-1274
▁Probleme	-1275
▁Produkte	-1276
▁bekommen	-1277
▁nächsten	-1278
▁Schönheit	-1279
▁natürlich	-1280
▁verwendet	-1281
▁Afghanistan	-1282
▁Kochbrennstoff	-1283
".	-1284
MW	-1285
dr	-1286
ks	-1287
ub	-1288
ug	-1289
zy	-1290
öt	-1291
bin	-1292
chs	-1293
ers	-1294
ial	-1295
nah	-1296
nov	-1297
nst	-1298
ore	-1299
rad	-1300
ris	-1301
sol	-1302
stk	-1303
zuf	-1304
ört	-1305
▁50	-1306
▁Bi	-1307
▁JA	-1308
▁Kn	-1309
▁fr	-1310
▁fu	-1311
alog	-1312
arte	-1313
asch	-1314
ehnt	-1315
esse	-1316
form	-1317
fort	-1318
ilit	-1319
nern	-1320
nung	-1321
olen	-1322
olle	-1323
omen	-1324
sion	-1325
spir	-1326
teil	-1327
▁100	-1328
▁BMW	-1329
▁Bed	-1330
▁Ber	-1331
▁Fäh	-1332
▁Ged	-1333
▁Gew	-1334
▁Mac	-1335
▁Mal	-1336
▁Män	-1337
▁Rus	-1338
▁Wor	-1339
▁akt	-1340
▁bez	-1341
▁dir	-1342
▁for	-1343
▁los	-1344
▁sol	-1345
▁zer	-1346
einig	-1347
enden	-1348
etzen	-1349
onder	-1350
ossen	-1351
rogen	-1352
schir	-1353
sicht	-1354
stens	-1355
ument	-1356
äsent	-1357
▁Dias	-1358
▁Eine	-1359
▁Form	-1360
▁Mann	-1361
▁Meer	-1362
▁NASA	-1363
▁Nein	-1364
▁Rede	-1365
▁Spaß	-1366
▁Tour	-1367
▁Vort	-1368
▁Wege	-1369
▁Ziel	-1370
▁beim	-1371
▁best	-1372
▁einz	-1373
▁gebe	-1374
▁klar	-1375
▁schw	-1376
▁zwar	-1377
andeln	-1378
andelt	-1379
denten	-1380
gleich	-1381
keiten	-1382
kennen	-1383
reativ	-1384
rechen	-1385
▁Apple	-1386
▁Bezug	-1387
▁Frage	-1388
▁Ideen	-1389
▁Monat	-1390
▁Progr	-1391
▁Sehen	-1392
▁Staat	-1393
▁auszu	-1394
▁herum	-1395
▁ihrer	-1396
▁künst	-1397
▁nimmt	-1398
▁sieht	-1399
▁techn	-1400
▁verbr	-1401
▁überh	-1402
fahrung	-1403
▁Genome	-1404
▁Russen	-1405
▁System	-1406
▁Vermut	-1407
▁fanden	-1408
▁früher	-1409
▁hunder	-1410
▁hätten	-1411
▁leicht	-1412
▁wollte	-1413
▁wurden	-1414
duzieren	-1415
einigten	-1416
etischen	-1417
▁Möglich	-1418
▁letzten	-1419
▁richtig	-1420
▁unserem	-1421
▁überall	-1422
schlossen	-1423
▁Briketts	-1424
▁Wahrheit	-1425
▁Zusammen	-1426
▁brauchen	-1427
▁ziemlich	-1428
▁Bildschir	-1429
▁Erfahrung	-1430
▁Organismen	-1431
▁entwickelt	-1432
▁Einfachheit	-1433
▁Entwicklung	-1434
▁entscheiden	-1435
▁unterschied	-1436
!"	-1437
ed	-1438
ha	-1439
ow	-1440
öl	-1441
▁'	-1442
▁8	-1443
aut	-1444
bes	-1445
bit	-1446
eht	-1447
ere	-1448
fte	-1449
gal	-1450
gte	-1451
how	-1452
hrt	-1453
hän	-1454
ief	-1455
kul	-1456
llt	-1457
log	-1458
lue	-1459
orb	-1460
ows	-1461
ror	-1462
szy	-1463
ubl	-1464
urs	-1465
wie	-1466
wär	-1467
zus	-1468
▁12	-1469
▁30	-1470
▁Am	-1471
▁Fl	-1472
▁Je	-1473
▁Kr	-1474
▁OK	-1475
▁Ph	-1476
▁ex	-1477
▁pl	-1478
▁pr	-1479
aben	-1480
ange	-1481
asse	-1482
bung	-1483
cher	-1484
deut	-1485
elbe	-1486
enne	-1487
entr	-1488
eren	-1489
hlte	-1490
hode	-1491
ickt	-1492
iele	-1493
ikan	-1494
kehr	-1495
miss	-1496
omos	-1497
prob	-1498
rant	-1499
rise	-1500
stän	-1501
▁11.	-1502
▁Fil	-1503
▁Inf	-1504
▁Kol	-1505
▁Lin	-1506
▁Ris	-1507
▁Sep	-1508
▁gel	-1509
▁hän	-1510
▁oft	-1511
▁sub	-1512
▁wus	-1513
ander	-1514
chite	-1515
elten	-1516
frist	-1517
fügen	-1518
icken	-1519
igung	-1520
itzen	-1521
ktion	-1522
licht	-1523
olgen	-1524
orgen	-1525
setzt	-1526
stand	-1527
tlich	-1528
zeich	-1529
▁Blue	-1530
▁Dann	-1531
▁Deep	-1532
▁Disk	-1533
▁Ende	-1534
▁Groß	-1535
▁Part	-1536
▁Sinn	-1537
▁Text	-1538
▁Weil	-1539
▁Wind	-1540
▁Wort	-1541
▁bald	-1542
▁bill	-1543
▁erin	-1544
▁fest	-1545
▁gefl	-1546
▁gest	-1547
▁glob	-1548
▁komp	-1549
▁nutz	-1550
▁ohne	-1551
▁seid	-1552
▁verd	-1553
annten	-1554
ausend	-1555
eitens	-1556
erkzeu	-1557
führen	-1558
ierend	-1559
ilitär	-1560
mittel	-1561
olitik	-1562
rieben	-1563
stelle	-1564
tember	-1565
▁Chris	-1566
▁Diese	-1567
▁Gegen	-1568
▁Innov	-1569
▁Leist	-1570
▁Orbit	-1571
▁Postk	-1572
▁Reihe	-1573
▁Virus	-1574
▁Warum	-1575
▁Zeich	-1576
▁absol	-1577
▁allen	-1578
▁aufre	-1579
▁bekam	-1580
▁genug	-1581
▁gesch	-1582
▁getan	-1583
▁große	-1584
▁hinzu	-1585
▁ihren	-1586
▁neues	-1587
▁sechs	-1588
▁seine	-1589
▁steht	-1590
▁synth	-1591
ationen	-1592
itionen	-1593
orbital	-1594
organis	-1595
ssystem	-1596
▁Bilder	-1597
▁Drogen	-1598
▁Forsch	-1599
▁Grundl	-1600
▁Invest	-1601
▁Kohlen	-1602
▁Lösung	-1603
▁Monate	-1604
▁Zucker	-1605
▁direkt	-1606
▁führen	-1607
▁konnte	-1608
▁sofort	-1609
▁welche	-1610
staurant	-1611
struktur	-1612
▁Chromos	-1613
▁Energie	-1614
▁Militär	-1615
▁Million	-1616
▁Windows	-1617
▁anderes	-1618
▁arbeite	-1619
▁betrach	-1620
▁deshalb	-1621
▁gesehen	-1622
▁kleinen	-1623
▁kleines	-1624
▁könnten	-1625
▁mussten	-1626
▁nachdem	-1627
▁unseren	-1628
▁unseres	-1629
▁Beihilfe	-1630
▁Interess	-1631
▁Lösungen	-1632
▁Zweitens	-1633
▁geflogen	-1634
▁sprechen	-1635
▁Flugzeuge	-1636
▁September	-1637
▁Studenten	-1638
▁einfachen	-1639
▁überhaupt	-1640
▁Automobile	-1641
▁Bildschirm	-1642
▁Postkarten	-1643
▁Wirtschaft	-1644
▁entwickeln	-1645
▁suborbital	-1646
▁Kohlenstoff	-1647
▁Vereinigten	-1648
▁interessante	-1649
▁verschiedene	-1650
▁verschiedenen	-1651
60	-1652
KW	-1653
ca	-1654
ko	-1655
od	-1656
ox	-1657
ph	-1658
üm	-1659
▁?	-1660
▁a	-1661
...	-1662
Ich	-1663
alm	-1664
aly	-1665
amt	-1666
ans	-1667
ard	-1668
ari	-1669
ele	-1670
ese	-1671
ets	-1672
fit	-1673
ils	-1674
inz	-1675
ium	-1676
ket	-1677
lex	-1678
orf	-1679
otw	-1680
our	-1681
tar	-1682
ult	-1683
ume	-1684
weg	-1685
wei	-1686
äre	-1687
öhn	-1688
▁15	-1689
▁23	-1690
▁Bä	-1691
▁CA	-1692
▁Gl	-1693
▁Ku	-1694
▁Na	-1695
▁Pl	-1696
▁US	-1697
▁al	-1698
abel	-1699
ales	-1700
ammt	-1701
ansp	-1702
ator	-1703
baut	-1704
bend	-1705
brau	-1706
dien	-1707
dung	-1708
dust	-1709
eigt	-1710
eißt	-1711
ffiz	-1712
geln	-1713
hang	-1714
inne	-1715
lebt	-1716
peri	-1717
rieg	-1718
seln	-1719
sens	-1720
stit	-1721
trau	-1722
trem	-1723
uten	-1724
wend	-1725
wind	-1726
zieh	-1727
ören	-1728
▁Air	-1729
▁Beg	-1730
▁Che	-1731
▁Dem	-1732
▁Ema	-1733
▁Fir	-1734
▁Job	-1735
▁Mut	-1736
▁Nas	-1737
▁Son	-1738
▁Uns	-1739
▁Vis	-1740
▁anf	-1741
▁dau	-1742
▁hal	-1743
▁lau	-1744
▁län	-1745
▁sah	-1746
▁sau	-1747
anken	-1748
annte	-1749
blich	-1750
deten	-1751
drück	-1752
ehmer	-1753
elfen	-1754
holen	-1755
legen	-1756
nahme	-1757
orfen	-1758
produ	-1759
reund	-1760
rustr	-1761
schte	-1762
statt	-1763
stütz	-1764
twort	-1765
uchst	-1766
ville	-1767
wegen	-1768
ümmer	-1769
▁Chan	-1770
▁Code	-1771
▁Denn	-1772
▁Phot	-1773
▁Schl	-1774
▁Verb	-1775
▁Wett	-1776
▁Word	-1777
▁blei	-1778
▁drau	-1779
▁egal	-1780
▁eure	-1781
▁flog	-1782
▁getr	-1783
▁hoff	-1784
▁raus	-1785
▁rein	-1786
▁ries	-1787
▁schl	-1788
▁wann	-1789
▁weit	-1790
geführ	-1791
lligen	-1792
merzie	-1793
onders	-1794
otwend	-1795
reicht	-1796
suchen	-1797
system	-1798
trauen	-1799
utzend	-1800
wasser	-1801
▁Boden	-1802
▁Bäume	-1803
▁Danke	-1804
▁Durch	-1805
▁Genau	-1806
▁Infra	-1807
▁Jahrz	-1808
▁Jetzt	-1809
▁Licht	-1810
▁Proje	-1811
▁Risik	-1812
▁Sinne	-1813
▁Woche	-1814
▁außer	-1815
▁benöt	-1816
▁ganze	-1817
▁lange	-1818
▁liegt	-1819
▁minde	-1820
▁offen	-1821
▁schön	-1822
▁wären	-1823
▁zeige	-1824
agement	-1825
deutung	-1826
dustrie	-1827
ffizien	-1828
flugzeu	-1829
richten	-1830
schluss	-1831
undheit	-1832
▁Dialog	-1833
▁Experi	-1834
▁Gesell	-1835
▁Männer	-1836
▁Sicher	-1837
▁Sprach	-1838
▁Transp	-1839
▁Zeiten	-1840
▁beiden	-1841
▁daraus	-1842
▁findet	-1843
▁genaus	-1844
▁größer	-1845
▁halten	-1846
▁inklus	-1847
▁invest	-1848
▁kennen	-1849
▁machte	-1850
▁nahmen	-1851
▁sauber	-1852
▁selten	-1853
▁vielen	-1854
▁wächst	-1855
gestellt	-1856
lichkeit	-1857
▁Archite	-1858
▁Bereich	-1859
▁Betrieb	-1860
▁Diashow	-1861
▁Diskuss	-1862
▁Handwer	-1863
▁Konsens	-1864
▁Politik	-1865
▁Tourist	-1866
▁Werkzeu	-1867
▁absolut	-1868
▁bereits	-1869
▁braucht	-1870
▁bringen	-1871
▁draußen	-1872
▁erzählt	-1873
▁kleiner	-1874
▁sequenz	-1875
▁stellen	-1876
▁stellte	-1877
▁synthet	-1878
missionen	-1879
sichtlich	-1880
ternehmer	-1881
▁Leistung	-1882
▁Programm	-1883
▁aufregen	-1884
▁befassen	-1885
▁beschäft	-1886
▁bisschen	-1887
▁demokrat	-1888
▁erzählen	-1889
▁stellten	-1890
▁verloren	-1891
▁versucht	-1892
windigkeit	-1893
▁Bedeutung	-1894
▁Fähigkeit	-1895
▁Industrie	-1896
▁Luftfahrt	-1897
▁Regierung	-1898
▁kommerzie	-1899
▁schneller	-1900
▁verlassen	-1901
▁veröffent	-1902
▁Innovation	-1903
▁Milliarden	-1904
▁Organismus	-1905
▁geschaffen	-1906
▁mindestens	-1907
▁nachdenken	-1908
▁Fortschritt	-1909
▁Wasserstoff	-1910
▁entschieden	-1911
▁geschlossen	-1912
▁Entwicklungs	-1913
▁Gesellschaft	-1914
▁Technologien	-1915
▁Zusammenhang	-1916
▁herzustellen	-1917
▁Infrastruktur	-1918
▁Investitionen	-1919
▁funktionieren	-1920
▁Geschwindigkeit	-1921
20	-1922
UV	-1923
bs	-1924
ia	-1925
ip	-1926
ls	-1927
mö	-1928
pl	-1929
ud	-1930
up	-1931
ve	-1932
yp	-1933
öp	-1934
▁[	-1935
▁Ö	-1936
amp	-1937
apt	-1938
bur	-1939
bäu	-1940
cen	-1941
dio	-1942
dru	-1943
ehn	-1944
ero	-1945
fäh	-1946
füg	-1947
gst	-1948
hns	-1949
hnt	-1950
ine	-1951
iok	-1952
jen	-1953
kur	-1954
les	-1955
maß	-1956
mit	-1957
ole	-1958
onn	-1959
ont	-1960
org	-1961
ros	-1962
sie	-1963
spl	-1964
spr	-1965
tes	-1966
ton	-1967
vid	-1968
was	-1969
wür	-1970
zep	-1971
zte	-1972
▁13	-1973
▁24	-1974
▁60	-1975
▁At	-1976
▁Cl	-1977
▁Do	-1978
▁Dr	-1979
▁Du	-1980
▁MI	-1981
▁Sh	-1982
▁bi	-1983
▁he	-1984
▁or	-1985
agar	-1986
ahlt	-1987
aren	-1988
biet	-1989
chem	-1990
eder	-1991
eres	-1992
eten	-1993
fang	-1994
folg	-1995
glie	-1996
gton	-1997
haft	-1998
halt	-1999
hler	-2000
häng	-2001
ider	-2002
iell	-2003
ilfe	-2004
imak	-2005
ingt	-2006
itzt	-2007
jekt	-2008
jets	-2009
jähr	-2010
klen	-2011
klär	-2012
ließ	-2013
llig	-2014
mals	-2015
ommt	-2016
onen	-2017
rade	-2018
rakt	-2019
rotz	-2020
schm	-2021
stra	-2022
stür	-2023
ufen	-2024
umne	-2025
unde	-2026
unge	-2027
voll	-2028
wahl	-2029
wert	-2030
ässt	-2031
▁...	-2032
▁199	-2033
▁Bes	-2034
▁Den	-2035
▁Dok	-2036
▁Eng	-2037
▁Exp	-2038
▁Für	-2039
▁Gar	-2040
▁Gem	-2041
▁Gro	-2042
▁Häl	-2043
▁Kuh	-2044
▁LKW	-2045
▁Mot	-2046
▁Neu	-2047
▁Ort	-2048
▁SUV	-2049
▁Tem	-2050
▁Tim	-2051
▁Von	-2052
▁beh	-2053
▁dad	-2054
▁daß	-2055
▁dür	-2056
▁gar	-2057
▁geh	-2058
▁gek	-2059
▁inf	-2060
▁ler	-2061
▁mag	-2062
▁sei	-2063
▁wei	-2064
ahlen	-2065
akter	-2066
amens	-2067
anach	-2068
annen	-2069
assag	-2070
bauen	-2071
blick	-2072
buron	-2073
chmal	-2074
ckend	-2075
eigen	-2076
eilen	-2077
ellen	-2078
emand	-2079
etten	-2080
gegen	-2081
griff	-2082
grund	-2083
heits	-2084
iesen	-2085
immer	-2086
itäts	-2087
kohle	-2088
mente	-2089
perat	-2090
racht	-2091
reibt	-2092
sehen	-2093
stern	-2094
teten	-2095
ählen	-2096
äumen	-2097
▁Ange	-2098
▁Auss	-2099
▁Bill	-2100
▁Chef	-2101
▁Dank	-2102
▁Dorf	-2103
▁Flug	-2104
▁Frei	-2105
▁Genf	-2106
▁Kass	-2107
▁Komp	-2108
▁Kons	-2109
▁Kont	-2110
▁Lock	-2111
▁Nash	-2112
▁Priv	-2113
▁Schr	-2114
▁Tage	-2115
▁Tick	-2116
▁Umge	-2117
▁Zero	-2118
▁euch	-2119
▁fant	-2120
▁freu	-2121
▁hiel	-2122
▁lebt	-2123
▁mach	-2124
▁naja	-2125
▁oben	-2126
▁priv	-2127
▁russ	-2128
▁sagt	-2129
▁star	-2130
▁such	-2131
▁verm	-2132
▁voll	-2133
brigen	-2134
fahren	-2135
forder	-2136
funden	-2137
indust	-2138
iniert	-2139
lassen	-2140
liches	-2141
nungen	-2142
ologie	-2143
reffen	-2144
stitut	-2145
werten	-2146
würdig	-2147
ziehen	-2148
ändert	-2149
▁Abend	-2150
▁Daten	-2151
▁David	-2152
▁Eines	-2153
▁Entde	-2154
▁Flüge	-2155
▁Gebäu	-2156
▁Gerät	-2157
▁Hilfe	-2158
▁Ihren	-2159
▁Krieg	-2160
▁Namen	-2161
▁Offen	-2162
▁Sauer	-2163
▁Seite	-2164
▁Stück	-2165
▁Tiere	-2166
▁Viele	-2167
▁aktiv	-2168
▁aufzu	-2169
▁danke	-2170
▁ernst	-2171
▁führt	-2172
▁gesam	-2173
▁heißt	-2174
▁höher	-2175
▁inner	-2176
▁jeden	-2177
▁lässt	-2178
▁polit	-2179
▁schle	-2180
▁sonst	-2181
▁unten	-2182
▁vorge	-2183
▁wicht	-2184
▁wollt	-2185
▁zeigt	-2186
▁überr	-2187
antwort	-2188
aterial	-2189
entlich	-2190
geführt	-2191
glichen	-2192
hington	-2193
isieren	-2194
jenigen	-2195
möglich	-2196
onenten	-2197
projekt	-2198
reichen	-2199
schauen	-2200
schnitt	-2201
szyklen	-2202
wendung	-2203
▁Abfall	-2204
▁Anfang	-2205
▁Bauern	-2206
▁Bezieh	-2207
▁Emails	-2208
▁Entsch	-2209
▁Frustr	-2210
▁Gemein	-2211
▁Ground	-2212
▁Haufen	-2213
▁Hälfte	-2214
▁Intern	-2215
▁Kommen	-2216
▁Konzep	-2217
▁Länder	-2218
▁Mittel	-2219
▁Moment	-2220
▁Presse	-2221
▁Vision	-2222
▁Wochen	-2223
▁bekann	-2224
▁biolog	-2225
▁dauert	-2226
▁ebenso	-2227
▁extrem	-2228
▁fuhren	-2229
▁fühlen	-2230
▁ganzes	-2231
▁gebaut	-2232
▁gewöhn	-2233
▁inspir	-2234
▁kleine	-2235
▁kümmer	-2236
▁lernen	-2237
▁liegen	-2238
▁musste	-2239
▁namens	-2240
▁profit	-2241
▁schwer	-2242
▁wusste	-2243
arbeitet	-2244
bination	-2245
egenheit	-2246
ffizienz	-2247
ierungen	-2248
sprochen	-2249
telligen	-2250
ternativ	-2251
zeptoren	-2252
▁Dutzend	-2253
▁Kolumne	-2254
▁Kuhdung	-2255
▁Ländern	-2256
▁Meinung	-2257
▁Methode	-2258
▁Präsent	-2259
▁Schnitt	-2260
▁Tiburon	-2261
▁Version	-2262
▁anstatt	-2263
▁ausprob	-2264
▁begeist	-2265
▁bekamen	-2266
▁bewegen	-2267
▁dachten	-2268
▁dadurch	-2269
▁einiges	-2270
▁einzige	-2271
▁erinner	-2272
▁gebeten	-2273
▁genauso	-2274
▁gleiche	-2275
▁kreativ	-2276
▁schwier	-2277
▁spannen	-2278
▁Übersch	-2279
arbeitung	-2280
industrie	-2281
▁Anderson	-2282
▁Dokument	-2283
▁Gedanken	-2284
▁Geschäft	-2285
▁Planeten	-2286
▁Realität	-2287
▁Umgebung	-2288
▁Vorstand	-2289
▁Werkzeug	-2290
▁arbeitet	-2291
▁beginnen	-2292
▁besseren	-2293
▁einfache	-2294
▁erreicht	-2295
▁genommen	-2296
▁getrennt	-2297
▁geworden	-2298
▁gleichen	-2299
▁hunderte	-2300
▁irgendwo	-2301
▁riesigen	-2302
Emissionen	-2303
wirtschaft	-2304
▁Designern	-2305
▁Einkommen	-2306
▁Grundlage	-2307
▁Holzkohle	-2308
▁Jahrzehnt	-2309
▁Nashville	-2310
▁Techniker	-2311
▁Untersuch	-2312
▁Versuchen	-2313
▁Vertrauen	-2314
▁Zeitpunkt	-2315
▁besonders	-2316
▁einfacher	-2317
▁entdecken	-2318
▁gegenüber	-2319
▁inklusive	-2320
▁verwenden	-2321
▁Diskussion	-2322
▁Meerwasser	-2323
▁Washington	-2324
▁ausgegeben	-2325
▁technische	-2326
verarbeitung	-2327
▁Architekten	-2328
▁Chromosomen	-2329
▁Frustration	-2330
▁Gelegenheit	-2331
▁Ingenieuren	-2332
▁Militärjets	-2333
▁Unternehmer	-2334
▁Vermutungen	-2335
▁genetischen	-2336
▁hergestellt	-2337
▁Fortschritte	-2338
▁Kapitalismus	-2339
▁Mikroorganis	-2340
▁entwickelten	-2341
▁interessiert	-2342
▁kommerzielle	-2343
▁synthetische	-2344
▁Betriebssystem	-2345
▁zusammenkommen	-2346
'"	-2347
8,	-2348
82	-2349
BM	-2350
So	-2351
Un	-2352
Zä	-2353
av	-2354
ax	-2355
cc	-2356
ev	-2357
ld	-2358
lt	-2359
of	-2360
pa	-2361
pg	-2362
ts	-2363
tt	-2364
äd	-2365
▁7	-2366
▁ä	-2367
▁ö	-2368
▁ü	-2369
Das	-2370
Kom	-2371
Nun	-2372
abe	-2373
aff	-2374
ame	-2375
any	-2376
arf	-2377
arr	-2378
ava	-2379
bat	-2380
bek	-2381
cor	-2382
del	-2383
die	-2384
ech	-2385
ehm	-2386
epr	-2387
err	-2388
eug	-2389
fel	-2390
fer	-2391
fes	-2392
get	-2393
iet	-2394
itu	-2395
itz	-2396
ksk	-2397
leb	-2398
leg	-2399
len	-2400
lös	-2401
man	-2402
mos	-2403
mot	-2404
ote	-2405
red	-2406
rod	-2407
roh	-2408
rom	-2409
ruh	-2410
tom	-2411
uer	-2412
xel	-2413
äbe	-2414
ält	-2415
äsi	-2416
äte	-2417
ätz	-2418
ötz	-2419
▁1,	-2420
▁21	-2421
▁4,	-2422
▁40	-2423
▁Bü	-2424
▁Ir	-2425
▁Jo	-2426
▁Ox	-2427
▁PS	-2428
▁Su	-2429
▁Wr	-2430
▁ak	-2431
▁ar	-2432
▁fä	-2433
▁km	-2434
▁ko	-2435
▁qu	-2436
▁ro	-2437
▁vö	-2438
abor	-2439
agos	-2440
amme	-2441
anne	-2442
asen	-2443
asst	-2444
ates	-2445
ause	-2446
bare	-2447
ches	-2448
dell	-2449
dent	-2450
doch	-2451
egas	-2452
eile	-2453
elan	-2454
elef	-2455
elig	-2456
elne	-2457
euer	-2458
ford	-2459
ften	-2460
fügt	-2461
gebr	-2462
gelo	-2463
ging	-2464
ifiz	-2465
igin	-2466
ions	-2467
itat	-2468
ktiv	-2469
land	-2470
mand	-2471
menü	-2472
mung	-2473
ogar	-2474
oney	-2475
oson	-2476
oten	-2477
oter	-2478
oxid	-2479
pfer	-2480
ptur	-2481
publ	-2482
renz	-2483
rohr	-2484
sein	-2485
ssen	-2486
ster	-2487
stät	-2488
tekt	-2489
tend	-2490
tens	-2491
urop	-2492
urze	-2493
usst	-2494
will	-2495
wirk	-2496
zahl	-2497
ßten	-2498
ählt	-2499
ände	-2500
ätze	-2501
öpfe	-2502
▁234	-2503
▁500	-2504
▁Als	-2505
▁Bra	-2506
▁Dar	-2507
▁Dru	-2508
▁Erf	-2509
▁Fin	-2510
▁Hin	-2511
▁IBM	-2512
▁Int	-2513
▁Jim	-2514
▁Kor	-2515
▁Kön	-2516
▁Las	-2517
▁Liz	-2518
▁MIT	-2519
▁Min	-2520
▁Nor	-2521
▁Ord	-2522
▁Pap	-2523
▁Per	-2524
▁Pil	-2525
▁Rad	-2526
▁Rek	-2527
▁Sol	-2528
▁Tip	-2529
▁Wer	-2530
▁alt	-2531
▁bas	-2532
▁bil	-2533
▁ers	-2534
▁feh	-2535
▁fil	-2536
▁ged	-2537
▁gez	-2538
▁min	-2539
▁neh	-2540
▁pas	-2541
▁rei	-2542
▁tra	-2543
▁weg	-2544
alyse	-2545
andet	-2546
anten	-2547
anyon	-2548
appen	-2549
aptop	-2550
baren	-2551
batte	-2552
bewer	-2553
desig	-2554
dsten	-2555
eprim	-2556
erken	-2557
ersön	-2558
ertig	-2559
essen	-2560
etter	-2561
flüge	-2562
fällt	-2563
gehen	-2564
günst	-2565
hlung	-2566
hören	-2567
ienst	-2568
iften	-2569
immel	-2570
iskut	-2571
itein	-2572
ition	-2573
ivers	-2574
kette	-2575
konom	-2576
laubt	-2577
mosph	-2578
nisse	-2579
olben	-2580
orben	-2581
orrad	-2582
präch	-2583
sieht	-2584
spekt	-2585
sproz	-2586
uldig	-2587
ummer	-2588
ungsk	-2589
unter	-2590
urzel	-2591
zentr	-2592
ängen	-2593
üssel	-2594
▁1982	-2595
▁Abst	-2596
▁Airl	-2597
▁Alle	-2598
▁Anru	-2599
▁Auch	-2600
▁Axel	-2601
▁Baum	-2602
▁Biom	-2603
▁Dach	-2604
▁Deut	-2605
▁Ding	-2606
▁Eben	-2607
▁Entw	-2608
▁Film	-2609
▁Ghan	-2610
▁Gore	-2611
▁Heim	-2612
▁Hoff	-2613
▁Jobs	-2614
▁Kind	-2615
▁Koll	-2616
▁Lage	-2617
▁Mich	-2618
▁Mitt	-2619
▁Netz	-2620
▁Orte	-2621
▁Palm	-2622
▁Pier	-2623
▁Rick	-2624
▁Rock	-2625
▁Schu	-2626
▁Skul	-2627
▁Stra	-2628
▁Zahl	-2629
▁Zeug	-2630
▁acht	-2631
▁aktu	-2632
▁amer	-2633
▁ausw	-2634
▁blau	-2635
▁eher	-2636
▁fand	-2637
▁fast	-2638
▁fern	-2639
▁frei	-2640
▁fuhr	-2641
▁gern	-2642
▁gros	-2643
▁gäbe	-2644
▁hoch	-2645
▁okay	-2646
▁rief	-2647
▁samm	-2648
▁schm	-2649
▁setz	-2650
▁umge	-2651
▁vari	-2652
▁wohl	-2653
▁wozu	-2654
▁zehn	-2655
▁zuzu	-2656
▁zwöl	-2657
Zähler	-2658
agarin	-2659
annung	-2660
atisch	-2661
bilden	-2662
bildet	-2663
derwär	-2664
eiligt	-2665
entrum	-2666
essert	-2667
fallen	-2668
fanden	-2669
forsch	-2670
fügung	-2671
führer	-2672
gannen	-2673
gelder	-2674
heiten	-2675
hinter	-2676
hunder	-2677
hängig	-2678
ickten	-2679
igsten	-2680
indest	-2681
indung	-2682
isches	-2683
kunden	-2684
lebnis	-2685
machen	-2686
menten	-2687
proben	-2688
quelle	-2689
reiben	-2690
reiche	-2691
roffen	-2692
schiff	-2693
schlie	-2694
sitzen	-2695
uchstä	-2696
äglich	-2697
öffnet	-2698
▁Aktiv	-2699
▁Angst	-2700
▁Codes	-2701
▁Drang	-2702
▁Essen	-2703
▁Europ	-2704
▁Exped	-2705
▁Firma	-2706
▁Gener	-2707
▁Grand	-2708
▁Ihrer	-2709
▁Klang	-2710
▁Klein	-2711
▁Künst	-2712
▁Labor	-2713
▁Links	-2714
▁Macht	-2715
▁Meine	-2716
▁Moore	-2717
▁Nacht	-2718
▁Reise	-2719
▁Rolle	-2720
▁Sogar	-2721
▁Spiel	-2722
▁Steve	-2723
▁Strom	-2724
▁Tagen	-2725
▁Teams	-2726
▁Telef	-2727
▁Times	-2728
▁Todes	-2729
▁Unser	-2730
▁Vegas	-2731
▁Viren	-2732
▁Zitat	-2733
▁bauen	-2734
▁bitte	-2735
▁darin	-2736
▁einzu	-2737
▁euren	-2738
▁glück	-2739
▁gutes	-2740
▁heran	-2741
▁hoffe	-2742
▁hänge	-2743
▁hätte	-2744
▁hören	-2745
▁jedem	-2746
▁kamen	-2747
▁kenne	-2748
▁kurze	-2749
▁mache	-2750
▁neben	-2751
▁nenne	-2752
▁plötz	-2753
▁stark	-2754
▁statt	-2755
▁tolle	-2756
▁trotz	-2757
▁umzus	-2758
▁verst	-2759
▁wahre	-2760
▁wohin	-2761
ational	-2762
attform	-2763
brigens	-2764
erweise	-2765
gemacht	-2766
ichtung	-2767
istisch	-2768
kskunst	-2769
ländern	-2770
okratie	-2771
schieht	-2772
schland	-2773
stellte	-2774
ständen	-2775
systeme	-2776
ynthese	-2777
äsident	-2778
ätzlich	-2779
ünschte	-2780
▁Andere	-2781
▁Apples	-2782
▁Ausmaß	-2783
▁Aussch	-2784
▁Bakter	-2785
▁Beginn	-2786
▁Bestra	-2787
▁Canyon	-2788
▁Chance	-2789
▁Dienst	-2790
▁Dieses	-2791
▁Einige	-2792
▁Folgen	-2793
▁Formen	-2794
▁Fragen	-2795
▁Freund	-2796
▁Ganzen	-2797
▁Gebrau	-2798
▁Grunde	-2799
▁Handel	-2800
▁Heraus	-2801
▁Indien	-2802
▁Inseln	-2803
▁Inspir	-2804
▁Können	-2805
▁Maniok	-2806
▁Meilen	-2807
▁Methan	-2808
▁Modell	-2809
▁Newton	-2810
▁Nutzen	-2811
▁Oxford	-2812
▁Papier	-2813
▁Passag	-2814
▁Photos	-2815
▁Regeln	-2816
▁Republ	-2817
▁Seiten	-2818
▁Shoney	-2819
▁Stille	-2820
▁Ticket	-2821
▁begann	-2822
▁benutz	-2823
▁besten	-2824
▁bleibt	-2825
▁bringt	-2826
▁danach	-2827
▁deprim	-2828
▁detekt	-2829
▁diskut	-2830
▁dürfen	-2831
▁eigene	-2832
▁erfolg	-2833
▁erklär	-2834
▁erlebt	-2835
▁fertig	-2836
▁finanz	-2837
▁folgen	-2838
▁formen	-2839
▁gewiss	-2840
▁helfen	-2841
▁hinein	-2842
▁intens	-2843
▁jedoch	-2844
▁keiner	-2845
▁kosten	-2846
▁kurzem	-2847
▁letzte	-2848
▁länger	-2849
▁meines	-2850
▁mitein	-2851
▁mitten	-2852
▁nutzen	-2853
▁passte	-2854
▁persön	-2855
▁schwar	-2856
▁seiner	-2857
▁sieben	-2858
▁sprach	-2859
▁steckt	-2860
▁voraus	-2861
▁vorher	-2862
▁völlig	-2863
▁wenige	-2864
▁zeigte	-2865
▁zuerst	-2866
▁öffent	-2867
Software	-2868
elangelo	-2869
fesystem	-2870
flugzeug	-2871
imakrise	-2872
ingungen	-2873
isierung	-2874
jährigen	-2875
ließlich	-2876
mosphäre	-2877
otwendig	-2878
rorismus	-2879
zeichnet	-2880
zufinden	-2881
▁Afghane	-2882
▁Auswahl	-2883
▁Auswirk	-2884
▁Axelrod	-2885
▁Debatte	-2886
▁Entdeck	-2887
▁Gagarin	-2888
▁Gedanke	-2889
▁Kassava	-2890
▁Kreativ	-2891
▁Minuten	-2892
▁Monaten	-2893
▁Nachfol	-2894
▁Ordnung	-2895
▁Partner	-2896
▁Sequenz	-2897
▁Verkehr	-2898
▁Vortrag	-2899
▁Zeichen	-2900
▁Zentrum	-2901
▁anderer	-2902
▁bekannt	-2903
▁bekommt	-2904
▁bestimm	-2905
▁bewusst	-2906
▁bezahlt	-2907
▁derzeit	-2908
▁dorthin	-2909
▁erleben	-2910
▁fantast	-2911
▁filtern	-2912
▁gedacht	-2913
▁gefällt	-2914
▁gekauft	-2915
▁gewesen	-2916
▁größten	-2917
▁kapital	-2918
▁komplex	-2919
▁kümmern	-2920
▁langsam	-2921
▁machten	-2922
▁nochmal	-2923
▁sammeln	-2924
▁solcher	-2925
▁spielen	-2926
▁suchten	-2927
▁welches	-2928
forderung	-2929
▁Amerikan	-2930
▁Aussicht	-2931
▁Biologie	-2932
▁Biomasse	-2933
▁Erderwär	-2934
▁Erlebnis	-2935
▁Freiwill	-2936
▁Gespräch	-2937
▁Großteil	-2938
▁Internet	-2939
▁Kollegen	-2940
▁Konzepte	-2941
▁Material	-2942
▁Motorrad	-2943
▁Offenbar	-2944
▁Projekte	-2945
▁Skulptur	-2946
▁Spannung	-2947
▁abhängig	-2948
▁amerikan	-2949
▁aufgrund	-2950
▁begannen	-2951
▁bemannte	-2952
▁benötigt	-2953
▁besseres	-2954
▁dasselbe	-2955
▁deswegen	-2956
▁dieselbe	-2957
▁entdeckt	-2958
▁erkennen	-2959
▁erzählte	-2960
▁gelandet	-2961
▁geändert	-2962
▁jemanden	-2963
▁leichter	-2964
▁manchmal	-2965
▁mehreren	-2966
▁sauberer	-2967
▁schreibt	-2968
▁tausende	-2969
▁trotzdem	-2970
▁verdammt	-2971
▁zerlegen	-2972
produktion	-2973
restaurant	-2974
▁Aktivität	-2975
▁Automobil	-2976
▁Forschung	-2977
▁Gegensatz	-2978
▁Gemeinden	-2979
▁Interesse	-2980
▁Kommentar	-2981
▁Problemen	-2982
▁Prozesses	-2983
▁Schlüssel	-2984
▁Textilien	-2985
▁Verbesser	-2986
▁Verfügung	-2987
▁Vergleich	-2988
▁Vermutung	-2989
▁bemannten	-2990
▁beteiligt	-2991
▁entworfen	-2992
▁erinnerte	-2993
▁erreichen	-2994
▁geschieht	-2995
▁glücklich	-2996
▁großartig	-2997
▁innerhalb	-2998
▁kurzfrist	-2999
▁notwendig	-3000
▁plötzlich	-3001
▁schickten	-3002
▁schreiben	-3003
▁schwierig	-3004
▁variieren	-3005
▁verkaufen	-3006
▁zumindest	-3007
Unternehmen	-3008
ehntausende	-3009
uchstäblich	-3010
▁Atmosphäre	-3011
▁Demokratie	-3012
▁Engagement	-3013
▁Flugzeugen	-3014
▁Forschungs	-3015
▁Republikan	-3016
▁Restaurant	-3017
▁Sauerstoff	-3018
▁Transposon	-3019
▁Unterstütz	-3020
▁Zuckerrohr	-3021
▁alternativ	-3022
▁betrachten	-3023
▁betrachtet	-3024
▁deprimiert	-3025
▁eigentlich	-3026
▁gearbeitet	-3027
▁gesundheit	-3028
▁großartige	-3029
▁kapitalist	-3030
▁profitabel	-3031
▁umzusetzen	-3032
▁verbessert	-3033
▁verbrennen	-3034
▁verbringen	-3035
▁verwandeln	-3036
▁verwandelt	-3037
▁vorgestern	-3038
▁vorstellen	-3039
▁überdenken	-3040
▁Bestrahlung	-3041
▁Deutschland	-3042
▁Experimente	-3043
▁Genfamilien	-3044
▁Herstellung	-3045
▁Inspiration	-3046
▁Möglichkeit	-3047
▁Nachrichten	-3048
▁Regierungen	-3049
▁Sicherheits	-3050
▁Unterschied	-3051
▁Wahlmöglich	-3052
▁Zeichnungen	-3053
▁ausprobiert	-3054
▁investieren	-3055
▁kostengünst	-3056
▁miteinander	-3057
▁produzieren	-3058
▁schließlich	-3059
▁sequenziert	-3060
▁suborbitale	-3061
▁weitergeben	-3062
▁Auswirkungen	-3063
▁Erderwärmung	-3064
▁Interessante	-3065
▁Michelangelo	-3066
▁Präsentation	-3067
▁Sinnlichkeit	-3068
▁Wissenschaft	-3069
▁beschäftigen	-3070
▁durchgeführt	-3071
▁herausfanden	-3072
▁spannendsten	-3073
▁geschlossenen	-3074
▁Beihilfesystem	-3075
▁Handwerkskunst	-3076
▁herauszufinden	-3077
▁veröffentlicht	-3078
▁Herausforderung	-3079
▁Kochbrennstoffe	-3080
▁Mikroorganismus	-3081
0.	-3082
BS	-3083
ED	-3084
Kl	-3085
OS	-3086
PC	-3087
Vi	-3088
af	-3089
gl	-3090
hm	-3091
hs	-3092
hy	-3093
ix	-3094
mp	-3095
ns	-3096
th	-3097
wk	-3098
xy	-3099
Sh	-3100
kä	-3101
mü	-3102
vi	-3103
zw	-3104
Är	-3105
üh	-3106
▁X	-3107
▁c	-3108
.'"	-3109
Ein	-3110
Neu	-3111
Pod	-3112
Uhr	-3113
Upg	-3114
Was	-3115
Wir	-3116
aat	-3117
aby	-3118
ace	-3119
aft	-3120
agr	-3121
ama	-3122
anu	-3123
app	-3124
arm	-3125
ase	-3126
aun	-3127
bed	-3128
beh	-3129
bei	-3130
bet	-3131
brü	-3132
cke	-3133
eck	-3134
emm	-3135
era	-3136
fre	-3137
gag	-3138
har	-3139
hep	-3140
hre	-3141
ian	-3142
ift	-3143
inf	-3144
ino	-3145
ins	-3146
ira	-3147
ity	-3148
ker	-3149
kün	-3150
liz	-3151
lli	-3152
los	-3153
loß	-3154
lut	-3155
met	-3156
min	-3157
mpf	-3158
mul	-3159
mun	-3160
nam	-3161
nee	-3162
nik	-3163
oby	-3164
oco	-3165
oog	-3166
opf	-3167
opp	-3168
oss	-3169
ots	-3170
prü	-3171
rah	-3172
rif	-3173
riz	-3174
seh	-3175
shr	-3176
sst	-3177
sth	-3178
sts	-3179
stu	-3180
ull	-3181
upé	-3182
urf	-3183
utr	-3184
utt	-3185
vol	-3186
völ	-3187
way	-3188
wen	-3189
äge	-3190
ägt	-3191
äne	-3192
änn	-3193
ärk	-3194
äuf	-3195
ürf	-3196
ürt	-3197
üss	-3198
▁1.	-3199
ype	-3200
▁18	-3201
▁29	-3202
▁8.	-3203
▁94	-3204
▁95	-3205
▁AG	-3206
▁AI	-3207
▁DP	-3208
▁Hy	-3209
▁Hö	-3210
▁Li	-3211
▁Oh	-3212
▁Ra	-3213
▁Ro	-3214
▁TV	-3215
▁Ur	-3216
▁Wa	-3217
▁gr	-3218
▁ho	-3219
▁it	-3220
▁kn	-3221
▁mo	-3222
▁oh	-3223
▁pa	-3224
▁ra	-3225
▁ru	-3226
▁sa	-3227
▁tö	-3228
▁we	-3229
▁äu	-3230
Phän	-3231
Vize	-3232
Wenn	-3233
abet	-3234
abil	-3235
ager	-3236
aktu	-3237
alap	-3238
aler	-3239
amil	-3240
anor	-3241
apan	-3242
bank	-3243
bens	-3244
blie	-3245
buch	-3246
donn	-3247
eitr	-3248
emop	-3249
empl	-3250
endi	-3251
enza	-3252
erbt	-3253
erma	-3254
ezie	-3255
fakt	-3256
fass	-3257
fern	-3258
frei	-3259
fält	-3260
gang	-3261
gele	-3262
gere	-3263
gese	-3264
grei	-3265
grün	-3266
gten	-3267
hart	-3268
heed	-3269
hend	-3270
herd	-3271
hnte	-3272
holz	-3273
hält	-3274
iche	-3275
iebl	-3276
ient	-3277
ight	-3278
iker	-3279
ikum	-3280
ines	-3281
ings	-3282
innt	-3283
inos	-3284
itel	-3285
iter	-3286
itze	-3287
komp	-3288
kons	-3289
kurr	-3290
künf	-3291
lauf	-3292
leit	-3293
lief	-3294
loan	-3295
must	-3296
nach	-3297
nütz	-3298
obil	-3299
Rech	-3300
alys	-3301
evin	-3302
okra	-3303
okus	-3304
omol	-3305
orgt	-3306
part	-3307
plan	-3308
prim	-3309
raft	-3310
raum	-3311
rech	-3312
reis	-3313
reng	-3314
ress	-3315
rest	-3316
road	-3317
rupt	-3318
sagt	-3319
sche	-3320
sfäh	-3321
stel	-3322
stet	-3323
stum	-3324
tare	-3325
tent	-3326
tert	-3327
tler	-3328
trag	-3329
twor	-3330
uern	-3331
unds	-3332
vent	-3333
viel	-3334
wegs	-3335
weis	-3336
weit	-3337
wohl	-3338
zean	-3339
zell	-3340
äden	-3341
ährt	-3342
änen	-3343
ängt	-3344
ären	-3345
äten	-3346
ätig	-3347
äuft	-3348
üler	-3349
▁190	-3350
▁194	-3351
▁197	-3352
▁211	-3353
▁300	-3354
▁320	-3355
▁400	-3356
▁800	-3357
▁Bag	-3358
▁Beh	-3359
▁Bot	-3360
▁CBS	-3361
▁Car	-3362
▁Con	-3363
▁Cup	-3364
▁DOS	-3365
▁Erw	-3366
▁Geh	-3367
▁Hum	-3368
▁Kal	-3369
▁Kil	-3370
▁Lei	-3371
▁Log	-3372
▁Mai	-3373
▁Mir	-3374
▁Mus	-3375
▁Nie	-3376
▁Not	-3377
▁Nur	-3378
▁Par	-3379
▁Pfl	-3380
▁Pol	-3381
▁Rat	-3382
▁Res	-3383
▁Rob	-3384
▁Sel	-3385
▁Spr	-3386
▁Str	-3387
▁Ter	-3388
▁Ton	-3389
▁Tür	-3390
▁USB	-3391
▁Uhr	-3392
▁Vol	-3393
▁Wei	-3394
▁Zum	-3395
▁anh	-3396
▁ank	-3397
▁ans	-3398
▁bie	-3399
ccus	-3400
lett	-3401
mith	-3402
▁def	-3403
▁eff	-3404
▁ehr	-3405
▁erh	-3406
▁erz	-3407
▁fal	-3408
▁fle	-3409
▁gef	-3410
▁hey	-3411
▁kle	-3412
▁lei	-3413
▁men	-3414
▁ran	-3415
▁ret	-3416
▁tut	-3417
▁ult	-3418
▁ums	-3419
▁zuh	-3420
▁Öff	-3421
Bitte	-3422
Danke	-3423
Liebe	-3424
ahrel	-3425
allen	-3426
aller	-3427
ampag	-3428
artet	-3429
ascht	-3430
atmen	-3431
barer	-3432
beren	-3433
biete	-3434
brief	-3435
chter	-3436
corde	-3437
dehnt	-3438
denkt	-3439
ehnte	-3440
ektiv	-3441
elben	-3442
ement	-3443
enter	-3444
erfen	-3445
falls	-3446
fluss	-3447
fläch	-3448
frage	-3449
fälle	-3450
gaben	-3451
hauer	-3452
hemal	-3453
hilus	-3454
hnung	-3455
hoben	-3456
iegel	-3457
igend	-3458
iller	-3459
indem	-3460
inzip	-3461
ional	-3462
irmen	-3463
ister	-3464
istik	-3465
iveau	-3466
llenl	-3467
menüs	-3468
mögen	-3469
neren	-3470
nitte	-3471
obyte	-3472
ochen	-3473
ocken	-3474
omens	-3475
otels	-3476
pfind	-3477
plant	-3478
progr	-3479
prüft	-3480
ragte	-3481
redit	-3482
renze	-3483
rolle	-3484
rückt	-3485
sagen	-3486
schel	-3487
sführ	-3488
spürt	-3489
stück	-3490
tarif	-3491
tweit	-3492
udget	-3493
unsch	-3494
utage	-3495
weile	-3496
wesen	-3497
zelne	-3498
ädten	-3499
▁Är	-3500
engl	-3501
wemm	-3502
▁TED	-3503
▁ihm	-3504
amera	-3505
anuar	-3506
donna	-3507
munik	-3508
neutr	-3509
rifft	-3510
shraf	-3511
utnik	-3512
öhren	-3513
örung	-3514
ötige	-3515
▁2003	-3516
▁2004	-3517
▁2020	-3518
▁Alan	-3519
▁Aufg	-3520
▁Baby	-3521
▁Band	-3522
▁Bett	-3523
▁Blut	-3524
▁Bord	-3525
▁Brei	-3526
▁Buch	-3527
▁Cent	-3528
▁City	-3529
▁Drei	-3530
▁Ecke	-3531
▁Ehre	-3532
▁Eing	-3533
▁Eins	-3534
▁Eleg	-3535
▁Erde	-3536
▁Erst	-3537
▁Fahr	-3538
▁Glob	-3539
▁Grab	-3540
▁Grad	-3541
▁Herz	-3542
▁Jeff	-3543
▁Kohl	-3544
▁Kopf	-3545
▁Kram	-3546
▁Krit	-3547
▁Kult	-3548
▁Kurz	-3549
▁Laut	-3550
▁Lehr	-3551
▁Mars	-3552
▁Maus	-3553
▁Mehr	-3554
▁Naja	-3555
▁Noch	-3556
▁Näch	-3557
▁Ofen	-3558
▁Paar	-3559
▁Publ	-3560
▁Rest	-3561
▁Rich	-3562
▁Roll	-3563
▁Rück	-3564
▁Satz	-3565
▁Schw	-3566
▁Seit	-3567
▁Shep	-3568
▁Situ	-3569
▁Stat	-3570
▁Stim	-3571
▁Tats	-3572
▁Vern	-3573
▁Vers	-3574
▁Wach	-3575
▁Webs	-3576
▁Wein	-3577
▁Will	-3578
▁Wird	-3579
▁Zoll	-3580
▁aner	-3581
▁bekl	-3582
▁bezü	-3583
▁bloß	-3584
▁bren	-3585
▁chem	-3586
▁darf	-3587
▁deut	-3588
▁dich	-3589
▁emot	-3590
▁enor	-3591
▁erfü	-3592
▁ermö	-3593
▁erwä	-3594
▁fahr	-3595
▁fein	-3596
▁fiel	-3597
▁fügt	-3598
▁führ	-3599
▁grün	-3600
▁habt	-3601
▁halb	-3602
▁hand	-3603
▁heut	-3604
▁iPod	-3605
▁kalt	-3606
▁merk	-3607
▁mole	-3608
▁männ	-3609
▁nahe	-3610
▁nein	-3611
▁nütz	-3612
▁rund	-3613
▁sexy	-3614
▁strö	-3615
▁teil	-3616
▁tend	-3617
▁toll	-3618
▁traf	-3619
▁type	-3620
▁verp	-3621
▁winz	-3622
▁zerb	-3623
▁ästh	-3624
Vizepr	-3625
Wurzel	-3626
achsen	-3627
affung	-3628
agramm	-3629
amilie	-3630
andard	-3631
andten	-3632
anteil	-3633
anzmin	-3634
artung	-3635
asselt	-3636
asteln	-3637
aterie	-3638
ativen	-3639
auerte	-3640
aufbau	-3641
beseit	-3642
blemen	-3643
dienst	-3644
dresse	-3645
eimnis	-3646
eindru	-3647
ektion	-3648
emplar	-3649
erkenn	-3650
erkens	-3651
ertino	-3652
essent	-3653
faktor	-3654
ferenz	-3655
freund	-3656
fällen	-3657
gangen	-3658
gebiet	-3659
gendes	-3660
gesell	-3661
gruppe	-3662
handel	-3663
hnsinn	-3664
ichtet	-3665
idersp	-3666
iftung	-3667
igeria	-3668
iginal	-3669
imales	-3670
imität	-3671
istent	-3672
istenz	-3673
iziert	-3674
jemand	-3675
kerung	-3676
keting	-3677
kulare	-3678
künfte	-3679
luenza	-3680
nahmen	-3681
nehmen	-3682
nützig	-3683
ondere	-3684
ordnen	-3685
orgnis	-3686
ossile	-3687
reitet	-3688
renzen	-3689
rucken	-3690
schaut	-3691
schlag	-3692
selben	-3693
spanne	-3694
sslich	-3695
steine	-3696
stests	-3697
stände	-3698
stätte	-3699
stürzt	-3700
utzung	-3701
vollen	-3702
worfen	-3703
zeitig	-3704
zimmer	-3705
zählen	-3706
ßerdem	-3707
▁4.000	-3708
▁Alles	-3709
▁Anruf	-3710
▁Armut	-3711
▁Autok	-3712
▁Beitr	-3713
▁Braun	-3714
▁Broad	-3715
▁Bühne	-3716
▁Clare	-3717
▁Dabei	-3718
▁Davon	-3719
▁Ebene	-3720
▁Eigen	-3721
▁Ernst	-3722
▁Fokus	-3723
▁Force	-3724
▁Fähig	-3725
▁Galap	-3726
▁Gates	-3727
▁Ghana	-3728
▁Glass	-3729
▁Handy	-3730
▁Hause	-3731
▁Heute	-3732
▁Junge	-3733
▁Keine	-3734
▁Kevin	-3735
▁Klapp	-3736
▁Knopf	-3737
▁Kochf	-3738
▁Kolon	-3739
▁Konsu	-3740
▁Liebl	-3741
▁Linie	-3742
▁Liste	-3743
▁Maisk	-3744
▁Neues	-3745
▁Opfer	-3746
▁Platz	-3747
▁Pläne	-3748
▁Probe	-3749
▁Recht	-3750
▁Regen	-3751
▁Rekom	-3752
▁Relig	-3753
▁Seele	-3754
▁Sloan	-3755
▁Smith	-3756
▁Sperr	-3757
▁Stock	-3758
▁Studi	-3759
▁Tisch	-3760
▁Trade	-3761
▁Verbr	-3762
▁World	-3763
▁Worte	-3764
▁Zelle	-3765
▁Zerst	-3766
▁allem	-3767
▁anste	-3768
▁armen	-3769
▁autom	-3770
▁außen	-3771
▁davor	-3772
▁deren	-3773
▁desig	-3774
▁dreht	-3775
▁engag	-3776
▁erzeu	-3777
▁freue	-3778
▁gaben	-3779
▁heutz	-3780
▁hielt	-3781
▁holen	-3782
▁homol	-3783
▁hängt	-3784
▁junge	-3785
▁kauft	-3786
▁klare	-3787
▁lesen	-3788
▁liebe	-3789
▁meist	-3790
▁nehme	-3791
▁neuer	-3792
▁niedr	-3793
▁näher	-3794
▁packt	-3795
▁sauer	-3796
▁saßen	-3797
▁sowas	-3798
▁steck	-3799
▁tätig	-3800
▁ultim	-3801
▁verfl	-3802
▁wegen	-3803
▁zuvor	-3804
▁zwölf	-3805
▁äußer	-3806
Rechner	-3807
agessen	-3808
antifiz	-3809
aschend	-3810
attrakt	-3811
bewerbs	-3812
blieben	-3813
brikett	-3814
drücken	-3815
enntnis	-3816
ermaßen	-3817
etzlich	-3818
fristig	-3819
gerufen	-3820
glieder	-3821
hindern	-3822
hundert	-3823
imisten	-3824
italium	-3825
konomik	-3826
konzept	-3827
kurrenz	-3828
mension	-3829
methode	-3830
mitteln	-3831
mustert	-3832
ococcus	-3833
okraten	-3834
peratur	-3835
restige	-3836
ruption	-3837
smittel	-3838
splätze	-3839
ssisten	-3840
station	-3841
stausch	-3842
szyklus	-3843
tausend	-3844
tential	-3845
unächst	-3846
vention	-3847
verschm	-3848
wertung	-3849
zeichen	-3850
ünschen	-3851
▁30.000	-3852
▁50.000	-3853
▁Ansatz	-3854
▁Ashraf	-3855
▁Bedürf	-3856
▁Beteil	-3857
▁Bindem	-3858
▁Buchst	-3859
▁Christ	-3860
▁Diesen	-3861
▁Europa	-3862
▁Filter	-3863
▁Firmen	-3864
▁Garage	-3865
▁Gassen	-3866
▁Gebiet	-3867
▁Geräte	-3868
▁Geräts	-3869
▁Gesamt	-3870
▁Gewalt	-3871
▁Gewinn	-3872
▁Haemop	-3873
▁Heimat	-3874
▁Himmel	-3875
▁Hinter	-3876
▁Hotels	-3877
▁Humank	-3878
▁Inform	-3879
▁Jahres	-3880
▁Januar	-3881
▁Jemand	-3882
▁Knöpfe	-3883
▁Kunden	-3884
▁Laptop	-3885
▁Laufen	-3886
▁Lebens	-3887
▁Mangel	-3888
▁Massen	-3889
▁Mengen	-3890
▁Nische	-3891
▁Niveau	-3892
▁Pocken	-3893
▁Privat	-3894
▁Proben	-3895
▁Quelle	-3896
▁Region	-3897
▁Riesen	-3898
▁Risiko	-3899
▁Räumen	-3900
▁Schnee	-3901
▁Schock	-3902
▁Schule	-3903
▁Sonnen	-3904
▁Sorgen	-3905
▁Staats	-3906
▁Stelle	-3907
▁Steuer	-3908
▁Stücke	-3909
▁Unsere	-3910
▁Werden	-3911
▁Wetter	-3912
▁Wieder	-3913
▁Wright	-3914
▁Wunden	-3915
▁Yorker	-3916
▁Zellen	-3917
▁afghan	-3918
▁aktual	-3919
▁akzept	-3920
▁allein	-3921
▁anders	-3922
▁antwor	-3923
▁begren	-3924
▁begrün	-3925
▁besagt	-3926
▁brauch	-3927
▁dazuge	-3928
▁dritte	-3929
▁ehemal	-3930
▁einzuf	-3931
▁erlaub	-3932
▁fallen	-3933
▁falsch	-3934
▁fehler	-3935
▁formul	-3936
▁fragen	-3937
▁fragte	-3938
▁freuen	-3939
▁frühen	-3940
▁fällen	-3941
▁fühlte	-3942
▁geerbt	-3943
▁gehört	-3944
▁gesamm	-3945
▁grosse	-3946
▁grunds	-3947
▁hervor	-3948
▁hinaus	-3949
▁hinter	-3950
▁hoffen	-3951
▁inkons	-3952
▁insbes	-3953
▁intern	-3954
▁jahrel	-3955
▁jemals	-3956
▁jungen	-3957
▁kochen	-3958
▁langen	-3959
▁langer	-3960
▁lassen	-3961
▁laufen	-3962
▁lautet	-3963
▁leeres	-3964
▁leider	-3965
▁mensch	-3966
▁morgen	-3967
▁müsste	-3968
▁neigen	-3969
▁netten	-3970
▁oberen	-3971
▁schock	-3972
▁schrie	-3973
▁senden	-3974
▁setzte	-3975
▁sollen	-3976
▁sorgen	-3977
▁sowohl	-3978
▁sparen	-3979
▁stabil	-3980
▁stammt	-3981
▁stellt	-3982
▁stimmt	-3983
▁testen	-3984
▁tragen	-3985
▁untern	-3986
▁verein	-3987
▁versch	-3988
▁verurs	-3989
▁vorwie	-3990
▁wunder	-3991
▁wählen	-3992
▁ziehen	-3993
▁zweite	-3994
▁ändern	-3995
arbeiten	-3996
ausenden	-3997
bereiten	-3998
ckendste	-3999
eidungen	-4000
einander	-4001
endioxid	-4002
fahrenen	-4003
gebracht	-4004
genommen	-4005
geschäft	-4006
lexitäts	-4007
ominiert	-4008
onnummer	-4009
ptischen	-4010
raktisch	-4011
schaften	-4012
schlagen	-4013
sführung	-4014
spektive	-4015
sprozess	-4016
stellten	-4017
uldigung	-4018
ünstigen	-4019
▁Analyse	-4020
▁Bagasse	-4021
▁Begriff	-4022
▁Chancen	-4023
▁Designs	-4024
▁Drucker	-4025
▁Einsatz	-4026
▁Eleganz	-4027
▁Entwurf	-4028
▁Familie	-4029
▁Gebiete	-4030
▁Gebäude	-4031
▁Genomik	-4032
▁Inneren	-4033
▁Kontakt	-4034
▁Konzept	-4035
▁Lichtre	-4036
▁Madonna	-4037
▁Männern	-4038
▁Nigeria	-4039
▁Notwend	-4040
▁Nutzern	-4041
▁Piloten	-4042
▁Planung	-4043
▁Produkt	-4044
▁Quanten	-4045
▁Richard	-4046
▁Richtig	-4047
▁Risiken	-4048
▁Roboter	-4049
▁Sputnik	-4050
▁Straßen	-4051
▁Städten	-4052
▁Univers	-4053
▁Vorschr	-4054
▁Wellenl	-4055
▁Worüber	-4056
▁allerer	-4057
▁anderem	-4058
▁billige	-4059
▁bleiben	-4060
▁brachte	-4061
▁brauche	-4062
▁brennen	-4063
▁dagegen	-4064
▁dauerte	-4065
▁dringen	-4066
▁ehrlich	-4067
▁einigen	-4068
▁entdeck	-4069
▁enthält	-4070
▁entschl	-4071
▁erklärt	-4072
▁erlaubt	-4073
▁ersetzt	-4074
▁erstaun	-4075
▁erstens	-4076
▁frische	-4077
▁gesamte	-4078
▁gezeigt	-4079
▁globale	-4080
▁handeln	-4081
▁handelt	-4082
▁hielten	-4083
▁hundert	-4084
▁komprim	-4085
▁konkurr	-4086
▁konstru	-4087
▁mittler	-4088
▁niemand	-4089
▁nächste	-4090
▁offenen	-4091
▁private	-4092
▁präsent	-4093
▁rechten	-4094
▁schlimm	-4095
▁schreib	-4096
▁schrieb	-4097
▁seltene	-4098
▁solchen	-4099
▁steuern	-4100
▁treffen	-4101
▁täglich	-4102
▁weitere	-4103
▁wussten	-4104
▁zuhause	-4105
▁zweimal	-4106
Phänomens	-4107
abschluss	-4108
allererst	-4109
arbeitern	-4110
ationalen	-4111
flugzeuge	-4112
forschung	-4113
peraturen	-4114
probieren	-4115
rachtungs	-4116
stitution	-4117
telligenz	-4118
vorsitzen	-4119
völkerung	-4120
wemmungen	-4121
zubringen	-4122
▁Abkommen	-4123
▁Airlines	-4124
▁Ausnahme	-4125
▁Außerdem	-4126
▁Bedenken	-4127
▁Broadway	-4128
▁Concorde	-4129
▁Diagramm	-4130
▁Einfluss	-4131
▁Einzelne	-4132
▁Energien	-4133
▁Exemplar	-4134
▁Flugzeug	-4135
▁Funktion	-4136
▁Gebrauch	-4137
▁Gebäudes	-4138
▁Handwerk	-4139
▁Hoffnung	-4140
▁Institut	-4141
▁Kilobyte	-4142
▁Kommunik	-4143
▁Künstler	-4144
▁Lockhart	-4145
▁Lockheed	-4146
▁Mehrheit	-4147
▁Mikroben	-4148
▁Milliard	-4149
▁National	-4150
▁Papierab	-4151
▁Pflanzen	-4152
▁Publikum	-4153
▁Qualität	-4154
▁Schritte	-4155
▁Shepherd	-4156
▁Standard	-4157
▁Stiftung	-4158
▁Systemen	-4159
▁Tatsache	-4160
▁Tausende	-4161
▁Vorteile	-4162
▁Wachstum	-4163
▁Wettlauf	-4164
▁Wirklich	-4165
▁Zeitplan	-4166
▁anfangen	-4167
▁anschaut	-4168
▁anstelle	-4169
▁anziehen	-4170
▁aufbauen	-4171
▁beeindru	-4172
▁befinden	-4173
▁besitzen	-4174
▁bestehen	-4175
▁bestimmt	-4176
▁bewerten	-4177
▁bezahlen	-4178
▁billiger	-4179
▁dahinter	-4180
▁deutlich	-4181
▁effektiv	-4182
▁einfügen	-4183
▁entweder	-4184
▁erfunden	-4185
▁erhalten	-4186
▁erinnern	-4187
▁erkunden	-4188
▁ersetzen	-4189
▁erwartet	-4190
▁erzielen	-4191
▁gehalten	-4192
▁gestellt	-4193
▁gewinnen	-4194
▁globales	-4195
▁größeren	-4196
▁herausge	-4197
▁heutigen	-4198
▁intensiv	-4199
▁komplett	-4200
▁komplexe	-4201
▁konzentr	-4202
▁männlich	-4203
▁mögliche	-4204
▁original	-4205
▁schlagen	-4206
▁seltenen	-4207
▁verkauft	-4208
▁verrückt	-4209
▁versteht	-4210
▁vielmals	-4211
▁weltweit	-4212
▁wiederum	-4213
▁übrigens	-4214
antifizier	-4215
ateriellen	-4216
erkennungs	-4217
geschichte	-4218
seinkommen	-4219
splattform	-4220
ssistenten	-4221
ungskampag	-4222
▁Anwendung	-4223
▁Ausgleich	-4224
▁Bakterien	-4225
▁Beispiele	-4226
▁Bewertung	-4227
▁Beziehung	-4228
▁Botschaft	-4229
▁Chromosom	-4230
▁Cupertino	-4231
▁Datenbank	-4232
▁Effizienz	-4233
▁Einkünfte	-4234
▁Finanzmin	-4235
▁Galapagos	-4236
▁Intimität	-4237
▁Konferenz	-4238
▁Marketing	-4239
▁Meinungen	-4240
▁Milliarde	-4241
▁Passagier	-4242
▁Potential	-4243
▁Programme	-4244
▁Projekten	-4245
▁Raumflüge	-4246
▁Schaffung	-4247
▁Sperrholz	-4248
▁Teilnahme	-4249
▁Touristen	-4250
▁Umweltsch	-4251
▁Unterhalt	-4252
▁Vorstands	-4253
▁Webseiten	-4254
▁Zolltarif	-4255
▁abbringen	-4256
▁abgehoben	-4257
▁arbeitete	-4258
▁ausführen	-4259
▁ausgehend	-4260
▁auskennen	-4261
▁ausmachen	-4262
▁auswählen	-4263
▁bemerkens	-4264
▁benutzbar	-4265
▁benötigen	-4266
▁bestimmte	-4267
▁betreiben	-4268
▁bewegende	-4269
▁bezüglich	-4270
▁dieselben	-4271
▁ebenfalls	-4272
▁einschlie	-4273
▁entwerfen	-4274
▁ernsthaft	-4275
▁erstellen	-4276
▁geblieben	-4277
▁gestorben	-4278
▁getroffen	-4279
▁homologen	-4280
▁influenza	-4281
▁irgendwie	-4282
▁jahrelang	-4283
▁passieren	-4284
▁passierte	-4285
▁schlechte	-4286
▁schleppen	-4287
▁verbracht	-4288
▁verbrennt	-4289
▁vermeiden	-4290
▁verändern	-4291
▁wichtigen	-4292
▁zusammenf	-4293
▁Überleben	-4294
▁überleben	-4295
▁überprüft	-4296
antwortlich	-4297
beseitigung	-4298
geschrieben	-4299
komponenten	-4300
nachrichten	-4301
ungssysteme	-4302
▁Amerikaner	-4303
▁Buchstaben	-4304
▁Demokraten	-4305
▁Expedition	-4306
▁Experiment	-4307
▁Generation	-4308
▁Gesundheit	-4309
▁Grabstätte	-4310
▁Grundlagen	-4311
▁Herstellen	-4312
▁Klimakrise	-4313
▁Konkurrenz	-4314
▁Korruption	-4315
▁Maiskolben	-4316
▁Microsofts	-4317
▁Nachfolger	-4318
▁Problemlös	-4319
▁Produktion	-4320
▁Verantwort	-4321
▁Verbindung	-4322
▁Verwendung	-4323
▁Zeitspanne	-4324
▁Zerstörung	-4325
▁abgestürzt	-4326
▁anerkennen	-4327
▁ansteckend	-4328
▁arbeiteten	-4329
▁ausgedehnt	-4330
▁begeistern	-4331
▁begeistert	-4332
▁beschaffen	-4333
▁beschreibt	-4334
▁chemischen	-4335
▁diejenigen	-4336
▁eingesetzt	-4337
▁erschaffen	-4338
▁gemeinsame	-4339
▁gesprochen	-4340
▁gewünschte	-4341
▁heutzutage	-4342
▁hinzufügen	-4343
▁inspiriert	-4344
▁intelligen	-4345
▁künstliche	-4346
▁merkwürdig	-4347
▁mitgemacht	-4348
▁molekulare	-4349
▁reduzieren	-4350
▁russischer	-4351
▁unterstütz	-4352
▁verbreitet	-4353
▁verglichen	-4354
▁verhindern	-4355
▁vermasselt	-4356
▁verwandten	-4357
▁wichtigste	-4358
▁zurückging	-4359
▁zusammenge	-4360
▁überrascht	-4361
attraktionen	-4362
freundlichen	-4363
gesellschaft	-4364
▁Abfallprodu	-4365
▁Bauernleben	-4366
▁Bedingungen	-4367
▁Bedürfnisse	-4368
▁Beteiligung	-4369
▁Beziehungen	-4370
▁Bildschirms	-4371
▁Bindemittel	-4372
▁Brennstoffe	-4373
▁Erforschung	-4374
▁Fähigkeiten	-4375
▁Geschichten	-4376
▁Haemophilus	-4377
▁Intelligenz	-4378
▁Kombination	-4379
▁Komponenten	-4380
▁Konsumenten	-4381
▁Kreativität	-4382
▁Marktanteil	-4383
▁Mittagessen	-4384
▁Mittelpunkt	-4385
▁Offenbarung	-4386
▁Perspektive	-4387
▁Raumstation	-4388
▁Sonnenlicht	-4389
▁Tatsächlich	-4390
▁Transposons	-4391
▁Wasserholen	-4392
▁aufzuwerten	-4393
▁auszubilden	-4394
▁automatisch	-4395
▁beschäftigt	-4396
▁biologische	-4397
▁derzeitigen	-4398
▁detektieren	-4399
▁durchführen	-4400
▁eigennützig	-4401
▁eingestehen	-4402
▁eingestellt	-4403
▁einzufangen	-4404
▁feststellen	-4405
▁formulieren	-4406
▁gemeinsamen	-4407
▁geschrieben	-4408
▁gewöhnliche	-4409
▁großartigen	-4410
▁hoffentlich	-4411
▁inspirieren	-4412
▁institution	-4413
▁künstlichen	-4414
▁politischen	-4415
▁ungünstigen	-4416
▁unternommen	-4417
▁unterworfen	-4418
▁öffentliche	-4419
Vizepräsident	-4420
verschmutzung	-4421
▁Betrachtungs	-4422
▁Durchschnitt	-4423
▁Entdeckungen	-4424
▁Humankapital	-4425
▁Kohlendioxid	-4426
▁Komplexitäts	-4427
▁Lebenszyklus	-4428
▁Meilensteine	-4429
▁Republikaner	-4430
▁Untersuchung	-4431
▁Verbesserung	-4432
▁Vorschriften	-4433
▁Wellenlängen	-4434
▁angesprochen	-4435
▁ausgemustert	-4436
▁auszudrücken	-4437
▁buchstäblich	-4438
▁erfolgreiche	-4439
▁fantastische	-4440
▁gewöhnlichen	-4441
▁gleichzeitig	-4442
▁inkonsistent	-4443
▁insbesondere	-4444
▁irgendjemand	-4445
▁komprimieren	-4446
▁konstruieren	-4447
▁menschlichen	-4448
▁mittlerweile	-4449
▁persönlichen	-4450
▁präsentieren	-4451
▁sequenzieren	-4452
▁zehntausende	-4453
▁zuzubereiten	-4454
▁überraschend	-4455
▁Arbeitsplätze	-4456
▁Energiequelle	-4457
▁Kommunikation	-4458
▁Kriegsführung	-4459
▁Möglichkeiten	-4460
▁Notwendigkeit	-4461
▁Photosynthese	-4462
▁Rekombination	-4463
▁Telefonnummer	-4464
▁Unterstützung	-4465
▁aufgezeichnet	-4466
▁entscheidende	-4467
▁funktionierte	-4468
▁geschlossenes	-4469
▁grundsätzlich	-4470
▁interessantes	-4471
▁unglaublichen	-4472
restaurantkette	-4473
▁Entschuldigung	-4474
▁Finanzminister	-4475
▁Massengeschäft	-4476
▁Raumfahrtprogr	-4477
▁Untersuchungen	-4478
▁auszuprobieren	-4479
▁demokratischen	-4480
▁kostengünstige	-4481
▁offensichtlich	-4482
▁verantwortlich	-4483
▁Lichtrezeptoren	-4484
▁Vergleichstests	-4485
▁Wissenschaftler	-4486
▁einschliesslich	-4487
▁unterschiedlich	-4488
▁veröffentlichen	-4489
',	-4490
,1	-4491
,5	-4492
,6	-4493
-1	-4494
-4	-4495
.0	-4496
0'	-4497
1.	-4498
4.	-4499
.“	-4500
47	-4501
56	-4502
58	-4503
61	-4504
73	-4505
98	-4506
AR	-4507
Ar	-4508
CA	-4509
CS	-4510
Co	-4511
DS	-4512
Ev	-4513
Ex	-4514
Gl	-4515
IP	-4516
IR	-4517
IV	-4518
Im	-4519
In	-4520
Ja	-4521
Mm	-4522
Mo	-4523
Ms	-4524
Na	-4525
OT	-4526
Oh	-4527
Or	-4528
PA	-4529
Pl	-4530
Pr	-4531
Se	-4532
St	-4533
Tu	-4534
].	-4535
az	-4536
bi	-4537
bu	-4538
bü	-4539
ct	-4540
dd	-4541
eb	-4542
ek	-4543
fi	-4544
gn	-4545
go	-4546
gy	-4547
ii	-4548
io	-4549
kr	-4550
lü	-4551
mo	-4552
oy	-4553
oz	-4554
oß	-4555
pd	-4556
po	-4557
ps	-4558
qm	-4559
ry	-4560
sb	-4561
sg	-4562
sh	-4563
sö	-4564
tc	-4565
uc	-4566
ue	-4567
uk	-4568
vo	-4569
vy	-4570
wj	-4571
yc	-4572
yg	-4573
yl	-4574
yr	-4575
Öl	-4576
ßt	-4577
äm	-4578
üb	-4579
üp	-4580
⁄4	-4581
▁,	-4582
▁0	-4583
▁„	-4584
800	-4585
Die	-4586
Fin	-4587
Ihr	-4588
Kap	-4589
Mmm	-4590
OMs	-4591
Ord	-4592
POT	-4593
Sch	-4594
Sen	-4595
Sie	-4596
Wie	-4597
amb	-4598
anw	-4599
Des	-4600
Mat	-4601
Mir	-4602
Par	-4603
Ste	-4604
Tem	-4605
ary	-4606
asi	-4607
asz	-4608
aul	-4609
aup	-4610
aur	-4611
bel	-4612
box	-4613
bte	-4614
bür	-4615
cer	-4616
cho	-4617
chr	-4618
ehl	-4619
eig	-4620
eip	-4621
emd	-4622
ena	-4623
enk	-4624
eno	-4625
erg	-4626
erz	-4627
eta	-4628
eun	-4629
fia	-4630
gek	-4631
gew	-4632
hab	-4633
hau	-4634
hom	-4635
ias	-4636
ieg	-4637
ieß	-4638
ika	-4639
ike	-4640
ire	-4641
irt	-4642
jor	-4643
kos	-4644
kto	-4645
kür	-4646
las	-4647
lor	-4648
lub	-4649
mar	-4650
mel	-4651
mes	-4652
mon	-4653
mst	-4654
ola	-4655
ols	-4656
plo	-4657
päs	-4658
res	-4659
rog	-4660
rop	-4661
rüf	-4662
san	-4663
see	-4664
spe	-4665
stü	-4666
sum	-4667
tas	-4668
teg	-4669
tex	-4670
tre	-4671
uff	-4672
uhr	-4673
uni	-4674
uns	-4675
vak	-4676
vin	-4677
vir	-4678
yde	-4679
zun	-4680
öck	-4681
öst	-4682
ößt	-4683
üll	-4684
▁25	-4685
▁28	-4686
▁35	-4687
▁Ap	-4688
▁DC	-4689
▁Dy	-4690
▁Dü	-4691
▁Eb	-4692
▁Ei	-4693
▁GS	-4694
▁Gi	-4695
▁Mu	-4696
▁Ni	-4697
▁Pe	-4698
▁Pf	-4699
hol	-4700
ita	-4701
pit	-4702
uil	-4703
urt	-4704
vis	-4705
woh	-4706
▁AS	-4707
▁Az	-4708
▁Rä	-4709
▁SR	-4710
▁Sc	-4711
▁Wü	-4712
▁Za	-4713
▁di	-4714
▁du	-4715
▁el	-4716
▁hä	-4717
▁kr	-4718
▁lä	-4719
▁pf	-4720
▁su	-4721
▁sü	-4722
▁tr	-4723
▁wa	-4724
▁zü	-4725
ARPA	-4726
Call	-4727
Ding	-4728
Kass	-4729
Komm	-4730
Ment	-4731
Noch	-4732
Okay	-4733
Pont	-4734
achs	-4735
aden	-4736
agan	-4737
agat	-4738
anal	-4739
andt	-4740
anon	-4741
anst	-4742
apol	-4743
arch	-4744
arot	-4745
asie	-4746
asis	-4747
auch	-4748
aute	-4749
barn	-4750
beca	-4751
brig	-4752
bten	-4753
chin	-4754
chne	-4755
cole	-4756
detw	-4757
dies	-4758
eien	-4759
eing	-4760
ekul	-4761
emat	-4762
ener	-4763
erhe	-4764
ernd	-4765
erng	-4766
esch	-4767
eser	-4768
estr	-4769
etro	-4770
etun	-4771
forn	-4772
fühl	-4773
gene	-4774
gtyp	-4775
heor	-4776
hili	-4777
hlor	-4778
hört	-4779
ieft	-4780
iffe	-4781
ilft	-4782
imal	-4783
inen	-4784
inod	-4785
iver	-4786
izen	-4787
kins	-4788
ksam	-4789
kung	-4790
künd	-4791
lang	-4792
lant	-4793
leas	-4794
lles	-4795
llos	-4796
llte	-4797
mein	-4798
mten	-4799
Wor	-4800
bot	-4801
dex	-4802
ilt	-4803
kor	-4804
orn	-4805
ory	-4806
pel	-4807
zem	-4808
▁Mm	-4809
▁ti	-4810
Bere	-4811
Mach	-4812
andg	-4813
ansf	-4814
atei	-4815
atho	-4816
aton	-4817
dach	-4818
dver	-4819
hneh	-4820
itiv	-4821
nade	-4822
nehm	-4823
oben	-4824
obte	-4825
odur	-4826
odus	-4827
ogra	-4828
okor	-4829
olas	-4830
olet	-4831
ollo	-4832
onie	-4833
opol	-4834
ores	-4835
otiv	-4836
oust	-4837
ppon	-4838
raut	-4839
reen	-4840
rühl	-4841
samm	-4842
sari	-4843
scht	-4844
schö	-4845
sich	-4846
stat	-4847
stes	-4848
stig	-4849
stof	-4850
team	-4851
tels	-4852
tete	-4853
ular	-4854
unem	-4855
ursp	-4856
utal	-4857
weil	-4858
wält	-4859
zudr	-4860
zyme	-4861
äern	-4862
älte	-4863
örbe	-4864
örde	-4865
ösen	-4866
▁120	-4867
▁130	-4868
▁2.0	-4869
▁20.	-4870
▁Add	-4871
▁Afr	-4872
▁Bar	-4873
▁Bem	-4874
▁Bez	-4875
▁Bin	-4876
▁Bob	-4877
▁Bur	-4878
▁Dan	-4879
▁Dau	-4880
▁Dig	-4881
▁Emp	-4882
▁Erm	-4883
▁Fan	-4884
▁Far	-4885
▁Fax	-4886
▁HIV	-4887
▁Hal	-4888
▁Hut	-4889
▁Ker	-4890
▁Kna	-4891
▁Krä	-4892
▁Los	-4893
▁Mem	-4894
▁Myc	-4895
▁Off	-4896
▁Pan	-4897
▁Phi	-4898
▁Pom	-4899
Feh	-4900
ide	-4901
jus	-4902
rax	-4903
zut	-4904
äur	-4905
▁El	-4906
▁Et	-4907
▁Go	-4908
▁Gu	-4909
▁II	-4910
▁UN	-4911
▁fl	-4912
Hier	-4913
Nein	-4914
arzt	-4915
derl	-4916
dete	-4917
elie	-4918
eltw	-4919
gepa	-4920
hier	-4921
isst	-4922
okab	-4923
urem	-4924
▁Gas	-4925
▁Ist	-4926
▁Neo	-4927
▁Rel	-4928
▁Rem	-4929
▁Sen	-4930
▁Sob	-4931
▁Sor	-4932
▁Sub	-4933
▁Tom	-4934
▁Tri	-4935
▁Typ	-4936
▁UKW	-4937
▁Unh	-4938
▁Upd	-4939
▁Wes	-4940
▁Win	-4941
▁Zur	-4942
▁anz	-4943
▁bat	-4944
▁bed	-4945
▁bit	-4946
▁brü	-4947
▁doz	-4948
▁dün	-4949
▁ele	-4950
▁end	-4951
▁eth	-4952
▁flo	-4953
▁fre	-4954
▁geg	-4955
▁hüb	-4956
▁ide	-4957
▁inj	-4958
▁inn	-4959
▁int	-4960
▁kap	-4961
▁mat	-4962
▁max	-4963
▁mie	-4964
▁mon	-4965
▁müh	-4966
▁neg	-4967
▁nor	-4968
▁reg	-4969
▁saß	-4970
▁sen	-4971
▁sor	-4972
▁tol	-4973
▁unn	-4974
▁unw	-4975
▁wes	-4976
▁wor	-4977
▁wüs	-4978
▁zug	-4979
▁zut	-4980
Glück	-4981
Leder	-4982
Meine	-4983
Moder	-4984
Segen	-4985
Wisst	-4986
abend	-4987
abeth	-4988
affte	-4989
ahmen	-4990
ambia	-4991
anche	-4992
anter	-4993
apiok	-4994
arbon	-4995
arfen	-4996
atten	-4997
aufge	-4998
aupts	-4999
ipO	-5000
rok	-5001
sig	-5002
sle	-5003
tag	-5004
tig	-5005
zuw	-5006
Beit	-5007
amit	-5008
bert	-5009
elte	-5010
igur	-5011
mend	-5012
reet	-5013
reit	-5014
song	-5015
sper	-5016
ymer	-5017
▁Bel	-5018
▁Bis	-5019
▁Ele	-5020
▁Kas	-5021
▁Kat	-5022
▁Län	-5023
▁Mel	-5024
▁Pig	-5025
▁Uni	-5026
▁hel	-5027
▁pur	-5028
▁öst	-5029
ShipO	-5030
arrho	-5031
ather	-5032
auten	-5033
bedeu	-5034
bekam	-5035
bsten	-5036
bände	-5037
dient	-5038
digen	-5039
dlich	-5040
ehens	-5041
ehnst	-5042
eisen	-5043
ellul	-5044
elnen	-5045
engen	-5046
ennte	-5047
ergie	-5048
erten	-5049
freak	-5050
ftige	-5051
fähig	-5052
geber	-5053
gemüs	-5054
genen	-5055
gesam	-5056
harma	-5057
hlten	-5058
hnten	-5059
ichts	-5060
ieber	-5061
iemen	-5062
ierer	-5063
iffen	-5064
inder	-5065
inger	-5066
istor	-5067
italk	-5068
iteun	-5069
itsch	-5070
izarr	-5071
karte	-5072
keten	-5073
lasma	-5074
legte	-5075
lesen	-5076
leser	-5077
llung	-5078
macht	-5079
marag	-5080
merei	-5081
msten	-5082
nanor	-5083
nelle	-5084
nicht	-5085
ohlen	-5086
omann	-5087
onnen	-5088
oppel	-5089
probt	-5090
rades	-5091
rauff	-5092
reten	-5093
riche	-5094
richt	-5095
riegs	-5096
risis	-5097
rizen	-5098
rophe	-5099
7,5	-5100
agn	-5101
eum	-5102
hus	-5103
pfl	-5104
ppt	-5105
set	-5106
ums	-5107
▁39	-5108
▁Fo	-5109
brei	-5110
iser	-5111
ktat	-5112
ktor	-5113
ravi	-5114
rief	-5115
utan	-5116
wann	-5117
önen	-5118
üren	-5119
▁21.	-5120
▁Bus	-5121
▁Bür	-5122
▁Fer	-5123
▁Kum	-5124
▁Som	-5125
▁and	-5126
▁anw	-5127
▁ern	-5128
▁err	-5129
Start	-5130
adset	-5131
annei	-5132
diert	-5133
inner	-5134
roris	-5135
rüben	-5136
schem	-5137
scher	-5138
sform	-5139
shirt	-5140
spier	-5141
stroh	-5142
stärk	-5143
thalb	-5144
ttern	-5145
turen	-5146
ukary	-5147
unger	-5148
uster	-5149
ution	-5150
verls	-5151
viren	-5152
visor	-5153
wagen	-5154
weich	-5155
wärts	-5156
zwang	-5157
▁110'	-5158
▁1972	-5159
▁1995	-5160
▁200-	-5161
▁2000	-5162
▁234,	-5163
▁27,5	-5164
▁3000	-5165
▁5000	-5166
▁Able	-5167
▁Acht	-5168
▁Anal	-5169
▁Atem	-5170
▁Bade	-5171
▁Chem	-5172
▁Dame	-5173
▁Dein	-5174
▁Denk	-5175
▁Deta	-5176
▁Dopp	-5177
▁Empf	-5178
▁Erei	-5179
▁Evol	-5180
▁Fass	-5181
▁Fast	-5182
▁Flüs	-5183
▁Frag	-5184
▁Gibt	-5185
▁Grün	-5186
▁Halt	-5187
▁Hard	-5188
▁Hass	-5189
▁Haut	-5190
▁Hoch	-5191
▁Häuf	-5192
▁Höhe	-5193
▁Hört	-5194
▁Indi	-5195
▁Infr	-5196
▁Kali	-5197
▁Kauf	-5198
▁Keil	-5199
cci	-5200
lim	-5201
▁He	-5202
▁Hü	-5203
▁Nä	-5204
ades	-5205
allo	-5206
arck	-5207
dorf	-5208
omme	-5209
▁Ham	-5210
▁Hau	-5211
▁Hen	-5212
▁Hor	-5213
▁lok	-5214
▁sob	-5215
▁ter	-5216
alter	-5217
eimer	-5218
euden	-5219
riebe	-5220
terei	-5221
üssen	-5222
▁Aben	-5223
▁Dokt	-5224
▁Kell	-5225
▁Knie	-5226
▁Krei	-5227
▁Leih	-5228
▁Leit	-5229
▁Less	-5230
▁Line	-5231
▁Mach	-5232
▁Miss	-5233
▁Mist	-5234
▁Nahr	-5235
▁Name	-5236
▁Nase	-5237
▁Nich	-5238
▁Nähe	-5239
▁Nähr	-5240
▁Ober	-5241
▁Paul	-5242
▁Pess	-5243
▁Pred	-5244
▁Prie	-5245
▁ROMs	-5246
▁Redu	-5247
▁Resp	-5248
▁Rund	-5249
▁Russ	-5250
▁Sein	-5251
▁Sequ	-5252
▁Slog	-5253
▁Styl	-5254
▁Tant	-5255
▁Taur	-5256
▁Tenn	-5257
▁Test	-5258
▁Trau	-5259
▁Vase	-5260
▁Verl	-5261
▁Vide	-5262
▁Vier	-5263
▁Voll	-5264
▁Vorl	-5265
▁Wert	-5266
▁Woll	-5267
▁alte	-5268
▁anst	-5269
▁anzu	-5270
▁auff	-5271
▁aufr	-5272
▁aufs	-5273
▁baut	-5274
▁beun	-5275
▁bist	-5276
▁clim	-5277
▁denk	-5278
▁dran	-5279
▁eink	-5280
▁ents	-5281
▁erle	-5282
▁flie	-5283
▁fort	-5284
▁füge	-5285
▁gebr	-5286
▁gele	-5287
▁gete	-5288
▁gilt	-5289
▁imst	-5290
▁inne	-5291
▁iron	-5292
▁jann	-5293
▁jähr	-5294
▁kehr	-5295
▁klag	-5296
▁krei	-5297
▁lass	-5298
▁lege	-5299
ffs	-5300
hop	-5301
oil	-5302
▁Ch	-5303
▁Ju	-5304
▁qm	-5305
allp	-5306
aufb	-5307
ausü	-5308
diam	-5309
dste	-5310
erre	-5311
ffin	-5312
lern	-5313
olon	-5314
osep	-5315
reck	-5316
zeug	-5317
önes	-5318
üste	-5319
▁Got	-5320
▁Jet	-5321
▁Kre	-5322
▁Tre	-5323
▁Vie	-5324
▁fol	-5325
▁mil	-5326
World	-5327
agten	-5328
arien	-5329
bleme	-5330
britt	-5331
chste	-5332
fidio	-5333
reden	-5334
sisch	-5335
ungsb	-5336
▁Bige	-5337
▁Erfü	-5338
▁Fall	-5339
▁Juni	-5340
▁Kari	-5341
▁Stru	-5342
▁Verw	-5343
▁Wirt	-5344
▁auss	-5345
▁beur	-5346
▁jetz	-5347
▁leid	-5348
▁lich	-5349
▁ment	-5350
▁mith	-5351
▁muff	-5352
▁null	-5353
▁part	-5354
▁prax	-5355
▁qual	-5356
▁reif	-5357
▁repr	-5358
▁reto	-5359
▁ruft	-5360
▁schn	-5361
▁selt	-5362
▁sorg	-5363
▁stau	-5364
▁ster	-5365
▁tief	-5366
▁unab	-5367
▁unkr	-5368
▁unre	-5369
▁vers	-5370
▁vorn	-5371
▁wage	-5372
▁ware	-5373
▁warm	-5374
▁wert	-5375
▁zube	-5376
▁zuge	-5377
Budget	-5378
Dollar	-5379
Finanz	-5380
Finden	-5381
Ordner	-5382
Uhrzus	-5383
Wissen	-5384
abefen	-5385
agnuss	-5386
altung	-5387
andgut	-5388
andter	-5389
apioka	-5390
aptial	-5391
archie	-5392
arität	-5393
arrhoe	-5394
aschii	-5395
atungs	-5396
aupten	-5397
ausgem	-5398
beiseh	-5399
döl	-5400
ice	-5401
tik	-5402
▁CD	-5403
▁lo	-5404
Ganz	-5405
ikel	-5406
ocht	-5407
self	-5408
spap	-5409
utzt	-5410
wand	-5411
▁Cor	-5412
▁Ind	-5413
▁Lev	-5414
▁dah	-5415
▁etc	-5416
▁imm	-5417
▁len	-5418
▁par	-5419
▁per	-5420
▁pos	-5421
Leute	-5422
Warte	-5423
ative	-5424
auerr	-5425
esten	-5426
regel	-5427
riegt	-5428
▁100-	-5429
▁BMWs	-5430
▁Buil	-5431
▁Chin	-5432
▁Dass	-5433
▁Esel	-5434
▁Grum	-5435
▁Rand	-5436
▁Ress	-5437
▁Sand	-5438
▁Wand	-5439
▁ausd	-5440
▁fürs	-5441
▁land	-5442
asiere	-5443
assung	-5444
astung	-5445
bereit	-5446
bielle	-5447
bische	-5448
bricht	-5449
brüder	-5450
bürste	-5451
center	-5452
ckerdr	-5453
cknade	-5454
ctions	-5455
dernen	-5456
diosen	-5457
dliche	-5458
echnen	-5459
eidens	-5460
eidung	-5461
eitere	-5462
eitung	-5463
eiüber	-5464
ennten	-5465
ereien	-5466
eriert	-5467
ernseh	-5468
essten	-5469
etisch	-5470
ettern	-5471
etzten	-5472
felder	-5473
gemüse	-5474
genden	-5475
gewöhn	-5476
haften	-5477
halter	-5478
haltig	-5479
hinwei	-5480
hnehin	-5481
iefsee	-5482
ielten	-5483
ienten	-5484
iertel	-5485
iertes	-5486
ietnam	-5487
ietsch	-5488
iliter	-5489
infekt	-5490
kolben	-5491
ktiere	-5492
lappen	-5493
lieger	-5494
mensch	-5495
mpfand	-5496
ochter	-5497
ockpit	-5498
osephs	-5499
▁14	-5500
▁16	-5501
▁OS	-5502
▁Ob	-5503
▁Op	-5504
anze	-5505
auss	-5506
enov	-5507
geht	-5508
merz	-5509
ombt	-5510
rate	-5511
raur	-5512
zube	-5513
▁10-	-5514
▁Hän	-5515
▁Mün	-5516
▁dra	-5517
▁för	-5518
ament	-5519
anzut	-5520
etzes	-5521
inent	-5522
sucht	-5523
viert	-5524
ärkeh	-5525
▁Arzt	-5526
▁Auft	-5527
▁Viel	-5528
▁Zorn	-5529
▁brün	-5530
▁demn	-5531
▁herz	-5532
abteil	-5533
aussen	-5534
bieren	-5535
dialog	-5536
gessen	-5537
ielles	-5538
issend	-5539
lantik	-5540
ourcen	-5541
oßrate	-5542
pfungs	-5543
pgrade	-5544
questr	-5545
razell	-5546
reifen	-5547
reiten	-5548
rogger	-5549
rohung	-5550
rüchen	-5551
schrän	-5552
sekten	-5553
sektor	-5554
senord	-5555
spekte	-5556
streng	-5557
teilen	-5558
tendes	-5559
tomsch	-5560
tragen	-5561
transf	-5562
uchten	-5563
ulären	-5564
ungsre	-5565
ursstu	-5566
vinzen	-5567
wanden	-5568
werfen	-5569
wkings	-5570
worben	-5571
zember	-5572
ziegel	-5573
zucker	-5574
Ölfass	-5575
ährung	-5576
änkung	-5577
▁2000.	-5578
▁Agend	-5579
▁Alter	-5580
▁Anbet	-5581
▁Aufhe	-5582
▁Aufzä	-5583
▁Basen	-5584
▁Bemüh	-5585
▁Brenn	-5586
▁China	-5587
▁Coupé	-5588
▁Düsen	-5589
▁Ebola	-5590
▁Eisen	-5591
▁Email	-5592
▁Furch	-5593
▁Ganze	-5594
▁Gelie	-5595
▁Glück	-5596
▁Gucci	-5597
▁Haben	-5598
▁Heimc	-5599
ssp	-5600
uld	-5601
▁ca	-5602
,1⁄4	-5603
0000	-5604
Netz	-5605
Wort	-5606
arry	-5607
iven	-5608
ivil	-5609
lass	-5610
ucht	-5611
▁30-	-5612
▁Mäd	-5613
▁Two	-5614
▁VIP	-5615
Rufen	-5616
alien	-5617
amill	-5618
anien	-5619
delle	-5620
freie	-5621
gpfer	-5622
nerin	-5623
pport	-5624
uchen	-5625
uchte	-5626
uiert	-5627
unglü	-5628
äufen	-5629
ürfen	-5630
▁1999	-5631
▁Ansp	-5632
▁Beil	-5633
▁Einv	-5634
▁Emot	-5635
▁Fill	-5636
▁Glau	-5637
▁Saft	-5638
▁Sitz	-5639
▁dien	-5640
▁kass	-5641
aftbar	-5642
cortex	-5643
fällig	-5644
geräte	-5645
gpferd	-5646
illanz	-5647
lauben	-5648
wendet	-5649
ächten	-5650
▁Beste	-5651
▁Bevor	-5652
▁Genes	-5653
▁Horiz	-5654
▁Hölle	-5655
▁Insel	-5656
▁Inter	-5657
▁Johns	-5658
▁Kauft	-5659
▁Knack	-5660
▁Körbe	-5661
▁Larry	-5662
▁Lesen	-5663
▁Leser	-5664
▁Level	-5665
▁Logik	-5666
▁Meter	-5667
▁Mitte	-5668
▁Mobil	-5669
▁Motiv	-5670
▁Natür	-5671
▁Orten	-5672
▁Peace	-5673
▁Polio	-5674
▁Preis	-5675
▁Qualm	-5676
▁Rauch	-5677
▁Regel	-5678
▁Risse	-5679
▁Sagen	-5680
▁Schlu	-5681
▁Segel	-5682
▁Siede	-5683
▁Sojus	-5684
▁State	-5685
▁Staus	-5686
▁Stich	-5687
▁Stick	-5688
▁Tages	-5689
▁Teamn	-5690
▁Teils	-5691
▁Vinod	-5692
▁Wesen	-5693
▁Wicht	-5694
▁Wider	-5695
▁Woher	-5696
▁Wohlt	-5697
▁Zagat	-5698
▁Zivil	-5699
blü	-5700
ixt	-5701
yne	-5702
geld	-5703
legt	-5704
nete	-5705
same	-5706
ächt	-5707
ätte	-5708
▁1,7	-5709
▁Erk	-5710
▁Ern	-5711
▁leg	-5712
▁ruh	-5713
▁top	-5714
agene	-5715
essee	-5716
ielle	-5717
itees	-5718
liebt	-5719
perco	-5720
samen	-5721
samer	-5722
usses	-5723
ünden	-5724
▁1961	-5725
▁Brau	-5726
▁Erbe	-5727
▁Frie	-5728
▁Nick	-5729
▁Tira	-5730
▁rote	-5731
blühen	-5732
drogen	-5733
facher	-5734
fältig	-5735
lagene	-5736
stagen	-5737
wunsch	-5738
zellen	-5739
▁Armen	-5740
▁Rockw	-5741
▁Sonst	-5742
▁Wille	-5743
▁Zusch	-5744
▁achte	-5745
▁akute	-5746
▁alten	-5747
▁alter	-5748
▁amort	-5749
▁andeu	-5750
▁angen	-5751
▁beizu	-5752
▁beste	-5753
▁bilde	-5754
▁blaue	-5755
▁denkt	-5756
▁derer	-5757
▁drang	-5758
▁dünne	-5759
▁ehren	-5760
▁einbr	-5761
▁einig	-5762
▁einkl	-5763
▁entst	-5764
▁erwer	-5765
▁essen	-5766
▁exist	-5767
▁fahre	-5768
▁freut	-5769
▁geach	-5770
▁genie	-5771
▁glaub	-5772
▁guten	-5773
▁halte	-5774
▁helft	-5775
▁ihrem	-5776
▁ihres	-5777
▁infiz	-5778
▁injiz	-5779
▁innov	-5780
▁invol	-5781
▁krank	-5782
▁lande	-5783
▁ledig	-5784
▁legal	-5785
▁legen	-5786
▁leise	-5787
▁läuft	-5788
▁mater	-5789
▁minim	-5790
▁motiv	-5791
▁mögen	-5792
▁nehmt	-5793
▁niger	-5794
▁organ	-5795
▁perfe	-5796
▁rasch	-5797
▁rasen	-5798
▁rauff	-5799
füt	-5800
tze	-5801
wey	-5802
Rage	-5803
ding	-5804
gelt	-5805
zeut	-5806
▁Jul	-5807
▁Oze	-5808
▁Pyg	-5809
▁kla	-5810
▁wow	-5811
▁zün	-5812
asare	-5813
esign	-5814
euern	-5815
geres	-5816
kenen	-5817
lande	-5818
mütze	-5819
prägt	-5820
raumt	-5821
spots	-5822
▁Juli	-5823
▁Just	-5824
▁Lang	-5825
▁Manh	-5826
▁beob	-5827
▁gefü	-5828
▁vors	-5829
chnung	-5830
dessen	-5831
ehntel	-5832
eitern	-5833
fendes	-5834
gelenk	-5835
hstoff	-5836
▁Dewey	-5837
▁Ihrem	-5838
▁Vokab	-5839
▁daher	-5840
▁gener	-5841
▁klass	-5842
▁petro	-5843
▁reine	-5844
▁reinf	-5845
▁renov	-5846
▁richt	-5847
▁rüber	-5848
▁schul	-5849
▁schät	-5850
▁setzt	-5851
▁sicht	-5852
▁sogen	-5853
▁sozus	-5854
▁spren	-5855
▁traur	-5856
▁umben	-5857
▁umher	-5858
▁unbek	-5859
▁unkon	-5860
▁unruh	-5861
▁unwir	-5862
▁verko	-5863
▁voran	-5864
▁wedel	-5865
▁wegem	-5866
▁wider	-5867
▁wohnt	-5868
▁zogen	-5869
▁zwang	-5870
▁Ärger	-5871
▁Überl	-5872
▁übers	-5873
Kapseln	-5874
Prinzip	-5875
Schönes	-5876
abenlei	-5877
achtete	-5878
agenese	-5879
andaktu	-5880
antrieb	-5881
aschine	-5882
atation	-5883
aussage	-5884
barkeit	-5885
basteln	-5886
behörde	-5887
besetzt	-5888
biwagen	-5889
blicher	-5890
braucht	-5891
cofidio	-5892
dlichen	-5893
ehnstün	-5894
eiteten	-5895
etation	-5896
etternd	-5897
fahrzeu	-5898
feldern	-5899
brid	-5900
lose	-5901
wers	-5902
ügel	-5903
▁Opt	-5904
▁Tot	-5905
emium	-5906
gelte	-5907
hanol	-5908
sover	-5909
weren	-5910
werke	-5911
▁Hing	-5912
▁Müll	-5913
▁Phan	-5914
▁Wohl	-5915
▁gehe	-5916
▁sinn	-5917
atelli	-5918
flügel	-5919
gliche	-5920
hlungs	-5921
htlose	-5922
malion	-5923
massen	-5924
mögens	-5925
rengen	-5926
rochen	-5927
tikale	-5928
werter	-5929
wjetun	-5930
üsseln	-5931
▁Frühl	-5932
▁Ihres	-5933
▁Jungs	-5934
▁Kaltw	-5935
▁Sport	-5936
▁konfr	-5937
▁mobil	-5938
▁sollt	-5939
▁zugän	-5940
fordert	-5941
geladen	-5942
geldern	-5943
gendwie	-5944
geraten	-5945
hauerei	-5946
hergebr	-5947
hnungen	-5948
hysisch	-5949
ichtbar	-5950
ierende	-5951
iginale	-5952
ikpunkt	-5953
ingenie	-5954
inieren	-5955
italien	-5956
itische	-5957
iversit	-5958
klaffen	-5959
klicken	-5960
kündigt	-5961
leasure	-5962
lichend	-5963
lichten	-5964
lligent	-5965
llionen	-5966
modelle	-5967
mwasser	-5968
nehmbar	-5969
ontiert	-5970
ortiert	-5971
otische	-5972
sbasare	-5973
schheit	-5974
seliger	-5975
spiegel	-5976
sterben	-5977
strateg	-5978
strickt	-5979
strukte	-5980
ständig	-5981
stürzte	-5982
suchten	-5983
tragene	-5984
uchiert	-5985
uggelte	-5986
ursache	-5987
utziges	-5988
veranst	-5989
wandelt	-5990
wohnten	-5991
wältigt	-5992
yrannei	-5993
ziehbar	-5994
öckelig	-5995
örtlich	-5996
▁Achten	-5997
▁Ahnung	-5998
▁Altern	-5999
eife	-6000
klar	-6001
▁150	-6002
▁Tja	-6003
▁wah	-6004
aldet	-6005
anson	-6006
aszin	-6007
atast	-6008
eunen	-6009
issan	-6010
ulian	-6011
▁1978	-6012
▁Ausl	-6013
▁Fant	-6014
▁News	-6015
▁Rekl	-6016
▁SPOT	-6017
▁erkl	-6018
▁kahl	-6019
▁nahm	-6020
▁plan	-6021
▁zahl	-6022
Weiter	-6023
briger	-6024
eitert	-6025
gesamt	-6026
leiter	-6027
teschl	-6028
uliani	-6029
unklar	-6030
▁Allen	-6031
▁Ausst	-6032
▁Bruch	-6033
▁Instr	-6034
▁dahin	-6035
▁gemie	-6036
▁hinab	-6037
▁minus	-6038
▁repro	-6039
▁staat	-6040
▁stand	-6041
▁still	-6042
▁theor	-6043
▁verwü	-6044
Cockpit	-6045
eiterte	-6046
haltend	-6047
issance	-6048
ungskon	-6049
verbrei	-6050
üssiger	-6051
▁Aminos	-6052
▁Analog	-6053
▁Analph	-6054
▁Anrufe	-6055
▁Ansari	-6056
▁Anteil	-6057
▁Apollo	-6058
▁Azoren	-6059
▁Bedien	-6060
▁Besitz	-6061
▁Bigelo	-6062
▁Binsen	-6063
▁Budget	-6064
▁Cather	-6065
▁Cellul	-6066
▁Diller	-6067
▁Dingen	-6068
▁DuPont	-6069
▁Einmal	-6070
▁Empire	-6071
▁Endver	-6072
▁Engpäs	-6073
▁Erfolg	-6074
▁Ernten	-6075
▁Ertrag	-6076
▁Flüsse	-6077
▁Gefahr	-6078
▁Gefühl	-6079
▁Geheim	-6080
▁Genoms	-6081
▁Gleich	-6082
▁Global	-6083
▁Gottes	-6084
▁Gründe	-6085
▁Haitis	-6086
▁Händen	-6087
▁Indian	-6088
▁Innern	-6089
▁Instit	-6090
▁Ironie	-6091
▁Kamera	-6092
▁Karten	-6093
▁Kaufen	-6094
▁Kerlen	-6095
▁Kleine	-6096
▁Komite	-6097
▁Kosten	-6098
▁Kreise	-6099
mee	-6100
que	-6101
Inte	-6102
flug	-6103
hyll	-6104
jave	-6105
ritt	-6106
zehn	-6107
ößen	-6108
▁20-	-6109
▁Jay	-6110
▁Tay	-6111
bares	-6112
bhaft	-6113
chtig	-6114
formt	-6115
heure	-6116
paare	-6117
udson	-6118
▁Bank	-6119
▁wett	-6120
bliche	-6121
mentan	-6122
ophyll	-6123
rechte	-6124
tliche	-6125
▁Armee	-6126
▁Chefs	-6127
▁Chlor	-6128
▁Daher	-6129
▁Gores	-6130
▁Maira	-6131
▁Neben	-6132
▁Poque	-6133
▁Remix	-6134
▁Waage	-6135
▁echte	-6136
▁erfor	-6137
▁komme	-6138
afällen	-6139
andelte	-6140
bhaftig	-6141
fornien	-6142
öffnete	-6143
ößenord	-6144
▁Gelder	-6145
▁Hudson	-6146
▁Kräfte	-6147
▁Kumpel	-6148
▁Lassen	-6149
▁Listen	-6150
▁Machen	-6151
▁Markts	-6152
▁Meiner	-6153
▁Merken	-6154
▁Mitarb	-6155
▁Mojave	-6156
▁Montag	-6157
▁Monter	-6158
▁Museum	-6159
▁Muster	-6160
▁Nation	-6161
▁Niagar	-6162
▁Norden	-6163
▁Normen	-6164
▁Ottern	-6165
▁Ozeans	-6166
▁Person	-6167
▁Pommes	-6168
▁Reagan	-6169
▁Remixe	-6170
▁Sambia	-6171
▁Schlan	-6172
▁Schubl	-6173
▁Schwär	-6174
▁Smarag	-6175
▁Soweit	-6176
▁Starck	-6177
▁Stieft	-6178
▁Stimme	-6179
▁Street	-6180
▁Strich	-6181
▁Tanzen	-6182
▁Tassen	-6183
▁Taylor	-6184
▁Teilen	-6185
▁Temper	-6186
▁Terror	-6187
▁Themen	-6188
▁Tieren	-6189
▁Treffs	-6190
▁Tränen	-6191
▁Urlaub	-6192
▁Videof	-6193
▁Vielen	-6194
▁Waffen	-6195
▁Wandel	-6196
▁Weizen	-6197
▁Weißen	-6198
▁Weltbe	-6199
mak	-6200
Kont	-6201
adox	-6202
irca	-6203
mack	-6204
▁260	-6205
▁Hop	-6206
▁Säu	-6207
Konta	-6208
gerät	-6209
geräu	-6210
hower	-6211
namik	-6212
▁Auff	-6213
▁Bakt	-6214
▁Clin	-6215
▁Ford	-6216
▁Grös	-6217
▁Hack	-6218
▁Tode	-6219
▁lief	-6220
makror	-6221
neller	-6222
truppe	-6223
▁Augen	-6224
▁Bushs	-6225
▁DARPA	-6226
▁Haken	-6227
▁Herde	-6228
▁Karte	-6229
▁Kraft	-6230
▁Weder	-6231
▁circa	-6232
▁töten	-6233
▁weite	-6234
▁änder	-6235
Paradox	-6236
ertigen	-6237
phische	-6238
ösungen	-6239
▁Gegend	-6240
▁Handys	-6241
▁Säuget	-6242
▁Vortag	-6243
▁Wettkä	-6244
▁Wollen	-6245
▁Wählen	-6246
▁Zeitab	-6247
▁anfing	-6248
▁anhand	-6249
▁aufber	-6250
▁ausdru	-6251
▁ausgez	-6252
▁aussch	-6253
▁bedeut	-6254
▁betrat	-6255
▁bisher	-6256
▁bissig	-6257
▁bizarr	-6258
▁brennt	-6259
▁cooles	-6260
▁deuten	-6261
▁dürfte	-6262
▁einsam	-6263
▁eintre	-6264
▁elegan	-6265
▁entspr	-6266
▁fahren	-6267
▁fangen	-6268
▁flogen	-6269
▁führte	-6270
▁füllen	-6271
▁ganzem	-6272
▁ganzer	-6273
▁geläuf	-6274
▁großer	-6275
▁halbes	-6276
▁hassen	-6277
▁hinsch	-6278
▁kannte	-6279
▁klappe	-6280
▁klickt	-6281
▁kombin	-6282
▁kurzer	-6283
▁lebten	-6284
▁legten	-6285
▁lenken	-6286
▁lieben	-6287
▁liebst	-6288
▁längst	-6289
▁machst	-6290
▁manche	-6291
▁massen	-6292
▁nachzu	-6293
▁passen	-6294
▁pharma	-6295
▁raffin	-6296
▁rannte	-6297
▁realen	-6298
▁redete	-6299
▁31	-6300
atec	-6301
ktes	-6302
verm	-6303
vers	-6304
örte	-6305
▁19.	-6306
▁Box	-6307
▁Pop	-6308
▁nör	-6309
attan	-6310
enzen	-6311
leist	-6312
ource	-6313
tritt	-6314
▁1000	-6315
▁310.	-6316
▁Deal	-6317
▁Dell	-6318
▁Elan	-6319
▁Extr	-6320
▁Szen	-6321
▁Volk	-6322
▁berü	-6323
▁heiß	-6324
▁irre	-6325
▁lade	-6326
eister	-6327
langen	-6328
trolle	-6329
zenten	-6330
▁Volks	-6331
▁Wände	-6332
▁füllt	-6333
▁hörte	-6334
▁leist	-6335
▁taten	-6336
▁tobte	-6337
▁ungeh	-6338
liefert	-6339
trabend	-6340
vermeid	-6341
versorg	-6342
▁Autobr	-6343
▁Enzyme	-6344
▁Kombin	-6345
▁Profit	-6346
▁Rekord	-6347
▁blaues	-6348
▁halben	-6349
▁landen	-6350
▁nieder	-6351
▁reiche	-6352
▁rennen	-6353
▁runter	-6354
▁schief	-6355
▁schlau	-6356
▁schöne	-6357
▁schütz	-6358
▁seinem	-6359
▁seinen	-6360
▁seines	-6361
▁selben	-6362
▁sobald	-6363
▁solare	-6364
▁sonder	-6365
▁soweit	-6366
▁spekul	-6367
▁spezie	-6368
▁stelle	-6369
▁strömt	-6370
▁trafen	-6371
▁unterm	-6372
▁verfüt	-6373
▁vieler	-6374
▁vieles	-6375
▁vieren	-6376
▁wachte	-6377
▁wahrer	-6378
▁warmen	-6379
▁warten	-6380
▁weißen	-6381
▁wüsste	-6382
▁Öffnen	-6383
▁Öffnet	-6384
▁öffnet	-6385
▁überfl	-6386
▁überqu	-6387
Funktion	-6388
Pleasure	-6389
Sequestr	-6390
Upgrades	-6391
achterei	-6392
agnusson	-6393
andelten	-6394
aschinen	-6395
aufzeich	-6396
ausübung	-6397
bildeten	-6398
briketts	-6399
Ons	-6400
dia	-6401
▁86	-6402
ampe	-6403
ifik	-6404
iful	-6405
▁Tod	-6406
brute	-6407
ellem	-6408
erkel	-6409
fähre	-6410
lerne	-6411
ordon	-6412
wkins	-6413
▁1500	-6414
▁Gute	-6415
▁Klar	-6416
▁Nord	-6417
▁Zell	-6418
▁dank	-6419
azifik	-6420
ouston	-6421
▁Abbau	-6422
▁Absch	-6423
▁Emiss	-6424
▁Lampe	-6425
▁Major	-6426
▁Media	-6427
▁Netzk	-6428
▁Trotz	-6429
▁baute	-6430
▁irgen	-6431
▁leite	-6432
▁wofür	-6433
Beitrag	-6434
eicherk	-6435
erkeley	-6436
erkunst	-6437
gepackt	-6438
ichtete	-6439
itztour	-6440
mitglie	-6441
▁Finden	-6442
▁Gordon	-6443
▁Herbst	-6444
▁Herzen	-6445
▁Hügeln	-6446
▁Majora	-6447
▁Rennen	-6448
▁Result	-6449
▁Wurzel	-6450
▁dichte	-6451
▁erstes	-6452
▁eukary	-6453
▁gefiel	-6454
▁leeren	-6455
▁nahebr	-6456
▁nennen	-6457
▁schell	-6458
▁umwelt	-6459
▁zweidi	-6460
betriebe	-6461
designer	-6462
egschaft	-6463
ehmigung	-6464
eiterung	-6465
endesign	-6466
ernehmen	-6467
erschaft	-6468
erstören	-6469
fristige	-6470
ftausend	-6471
führungs	-6472
gelassen	-6473
geregele	-6474
gleichen	-6475
gliedern	-6476
hnsinnig	-6477
hängigen	-6478
idarität	-6479
ietschte	-6480
indungen	-6481
ittliche	-6482
kommenes	-6483
konzentr	-6484
lizabeth	-6485
mendinge	-6486
mitglied	-6487
mutigend	-6488
okapital	-6489
partikel	-6490
peraturg	-6491
prestige	-6492
ragendes	-6493
raviolet	-6494
reditauf	-6495
rizitäts	-6496
schieben	-6497
seligere	-6498
springen	-6499
Mak	-6500
▁45	-6501
esfr	-6502
falt	-6503
▁AIA	-6504
▁Amy	-6505
Makro	-6506
konte	-6507
▁11'"	-6508
▁Biss	-6509
▁Isol	-6510
ehlung	-6511
habung	-6512
onzept	-6513
sstroh	-6514
stühle	-6515
▁Regul	-6516
▁Tipps	-6517
▁Waren	-6518
▁Write	-6519
▁angez	-6520
▁sowie	-6521
▁zählt	-6522
ressige	-6523
scheint	-6524
spalten	-6525
stecker	-6526
▁Allein	-6527
▁Genüge	-6528
▁Kochen	-6529
▁Meinen	-6530
▁Mitten	-6531
▁Office	-6532
▁Tippen	-6533
▁Wunder	-6534
▁Wüsten	-6535
▁firmen	-6536
▁meiste	-6537
Computer	-6538
chsgegen	-6539
erhebung	-6540
haltenen	-6541
reichert	-6542
sslichen	-6543
systemen	-6544
tengesch	-6545
tertagen	-6546
ttausend	-6547
umentale	-6548
undation	-6549
unglückt	-6550
utalsten	-6551
vielfalt	-6552
wegsehen	-6553
zeanogra	-6554
zwischen	-6555
ärkehalt	-6556
ätigkeit	-6557
▁200.000	-6558
▁Abfälle	-6559
▁Abstamm	-6560
▁Abstieg	-6561
▁Abweich	-6562
▁Airline	-6563
▁Angriff	-6564
▁Ansicht	-6565
▁Armutsg	-6566
▁Aufklär	-6567
▁Beifall	-6568
▁Bildern	-6569
▁Bildung	-6570
▁Branson	-6571
▁Carmack	-6572
▁Clinton	-6573
▁Darüber	-6574
▁Derzeit	-6575
▁Details	-6576
▁Doktort	-6577
▁Dynamik	-6578
▁Erinner	-6579
▁Ermächt	-6580
▁Erneuer	-6581
▁Fernseh	-6582
▁Fillmst	-6583
▁Filmver	-6584
▁Filters	-6585
▁Flieger	-6586
▁Fossile	-6587
▁Garagen	-6588
▁Gelände	-6589
▁Genauer	-6590
▁Goschel	-6591
▁Grumman	-6592
▁Handeln	-6593
▁Haustür	-6594
▁Houston	-6595
▁Instron	-6596
▁Interpr	-6597
▁Katalys	-6598
▁Kindern	-6599
Hey	-6600
Tja	-6601
sko	-6602
ileg	-6603
spaß	-6604
älde	-6605
▁Bad	-6606
▁Hey	-6607
▁Sex	-6608
▁Wow	-6609
▁Woz	-6610
adung	-6611
iefst	-6612
leife	-6613
loten	-6614
ratie	-6615
sonal	-6616
trieb	-6617
▁1943	-6618
▁Ohne	-6619
▁Reim	-6620
▁Wald	-6621
▁hieß	-6622
▁lust	-6623
gemein	-6624
lohnen	-6625
▁5.000	-6626
▁Kuhns	-6627
▁Reduz	-6628
▁Synth	-6629
▁Trieb	-6630
▁Wohin	-6631
▁bevor	-6632
▁deckt	-6633
▁fügte	-6634
▁kennt	-6635
▁reduz	-6636
denstru	-6637
designs	-6638
duziert	-6639
gemälde	-6640
izwesen	-6641
leisten	-6642
netisch	-6643
schalen	-6644
skosten	-6645
▁Betrag	-6646
▁Reihen	-6647
▁Reisen	-6648
▁befrei	-6649
▁bilden	-6650
▁dienen	-6651
▁essent	-6652
▁spüren	-6653
▁suchen	-6654
aschritt	-6655
erkzeuge	-6656
gemachte	-6657
izwesens	-6658
orierten	-6659
rechlich	-6660
rokratie	-6661
rünglich	-6662
▁Diskurs	-6663
▁Klicken	-6664
▁Komfort	-6665
▁Meister	-6666
▁Mittler	-6667
▁Mächten	-6668
▁Mädchen	-6669
▁Nachdem	-6670
▁Newtons	-6671
▁Niemand	-6672
▁Notizen	-6673
▁Parteip	-6674
▁Pazifik	-6675
▁Photore	-6676
▁Predigt	-6677
▁Preises	-6678
▁Prinzip	-6679
▁Rechten	-6680
▁Satelli	-6681
▁Schauen	-6682
▁Schluss	-6683
▁Schokor	-6684
▁Schritt	-6685
▁Schwung	-6686
▁Senates	-6687
▁Statoil	-6688
▁Sticker	-6689
▁Stimmen	-6690
▁Studios	-6691
▁Support	-6692
▁Teammit	-6693
▁Telefon	-6694
▁Terrors	-6695
▁Tickets	-6696
▁Treffen	-6697
▁Upgrade	-6698
▁Urtrieb	-6699
uda	-6700
▁90	-6701
▁91	-6702
▁98	-6703
▁99	-6704
bild	-6705
muda	-6706
ähig	-6707
▁'98	-6708
▁ext	-6709
folge	-6710
mühle	-6711
staut	-6712
▁238,	-6713
▁Boot	-6714
▁Carl	-6715
▁heim	-6716
fielen	-6717
isiere	-6718
pielen	-6719
ruppen	-6720
sfähig	-6721
teilig	-6722
äurese	-6723
▁Anbie	-6724
▁Anzug	-6725
▁Betty	-6726
▁Mafia	-6727
▁Sonos	-6728
▁abges	-6729
▁fähig	-6730
▁fällt	-6731
▁gestr	-6732
▁mikro	-6733
▁weiße	-6734
auptung	-6735
drückte	-6736
ionalen	-6737
klusion	-6738
tenbild	-6739
▁Aufbau	-6740
▁Aufmer	-6741
▁Energy	-6742
▁Gerade	-6743
▁Großes	-6744
▁Hatten	-6745
▁Zuerst	-6746
▁extrah	-6747
▁gelebt	-6748
▁klagte	-6749
▁späten	-6750
ationale	-6751
▁Bargeld	-6752
▁Bermuda	-6753
▁Gericht	-6754
▁Spielen	-6755
▁Versuch	-6756
▁Viertel	-6757
▁Vietnam	-6758
▁Vorschl	-6759
▁Vorteil	-6760
▁Warnung	-6761
▁Weltall	-6762
▁Widersp	-6763
▁Wissens	-6764
▁Während	-6765
▁Zeitrah	-6766
▁Zusagen	-6767
▁aktiven	-6768
▁anfängt	-6769
▁ankommt	-6770
▁ansieht	-6771
▁aufgegr	-6772
▁ausgeht	-6773
▁basteln	-6774
▁beginnt	-6775
▁beklagt	-6776
▁besagen	-6777
▁besitzt	-6778
▁besorgt	-6779
▁bessere	-6780
▁beunruh	-6781
▁brachen	-6782
▁brechen	-6783
▁brüllte	-6784
▁brünett	-6785
▁dennoch	-6786
▁dutzend	-6787
▁eingebe	-6788
▁einiger	-6789
▁einzell	-6790
▁element	-6791
▁endlich	-6792
▁enormen	-6793
▁entlang	-6794
▁entwarf	-6795
▁erfüllt	-6796
▁erreich	-6797
▁erstmal	-6798
▁erwacht	-6799
drin	-6800
▁CCS	-6801
wolle	-6802
▁2001	-6803
▁Mali	-6804
▁Norm	-6805
▁Ostk	-6806
▁Thom	-6807
▁hört	-6808
Fehler	-6809
Wimmel	-6810
abetin	-6811
fangen	-6812
iasmus	-6813
statue	-6814
▁Druck	-6815
▁abzuf	-6816
▁fragt	-6817
▁harte	-6818
▁loszu	-6819
chitekt	-6820
icheren	-6821
ssicher	-6822
▁Malibu	-6823
▁Nichts	-6824
▁Thomas	-6825
▁Worten	-6826
▁Zement	-6827
▁cooler	-6828
▁rettet	-6829
▁setzen	-6830
▁solche	-6831
▁tanzen	-6832
▁verkür	-6833
adeswegs	-6834
plodiert	-6835
qualität	-6836
▁Erstens	-6837
▁Genomen	-6838
▁Gewicht	-6839
▁Mission	-6840
▁Nutzung	-6841
▁Systems	-6842
▁beenden	-6843
▁erwarte	-6844
▁erzeugt	-6845
▁erzähle	-6846
▁fließen	-6847
▁fördern	-6848
▁fünfmal	-6849
▁geformt	-6850
▁gefühlt	-6851
▁gegeben	-6852
▁genutzt	-6853
▁gestört	-6854
▁grenzen	-6855
▁hausgem	-6856
▁herüber	-6857
▁hierher	-6858
▁hierhin	-6859
▁höchste	-6860
▁höherer	-6861
▁idealen	-6862
▁kümmert	-6863
▁lachten	-6864
▁lausche	-6865
▁legales	-6866
▁letzter	-6867
▁liebend	-6868
▁liefern	-6869
▁mildern	-6870
▁morgens	-6871
▁möchten	-6872
▁nahelie	-6873
▁neulich	-6874
▁ohnehin	-6875
▁organis	-6876
▁paralys	-6877
▁positiv	-6878
▁problem	-6879
▁reisten	-6880
▁ruhiges	-6881
▁saubere	-6882
▁schauen	-6883
▁schemat	-6884
▁schiere	-6885
▁schlief	-6886
▁schwarz	-6887
▁schätze	-6888
▁seither	-6889
▁setzten	-6890
▁sichere	-6891
▁starten	-6892
▁stecken	-6893
▁stehlen	-6894
▁sterben	-6895
▁süchtig	-6896
▁teilzun	-6897
▁töteten	-6898
▁umgeben	-6899
edon	-6900
▁12.	-6901
Krise	-6902
hafen	-6903
hltes	-6904
kehrt	-6905
krise	-6906
▁1908	-6907
▁Flut	-6908
▁Idio	-6909
▁Kurs	-6910
▁Seht	-6911
▁plus	-6912
bstitu	-6913
glicht	-6914
▁Fachs	-6915
▁Jeder	-6916
▁Jedes	-6917
▁Krank	-6918
▁Krise	-6919
▁Masse	-6920
▁Party	-6921
▁ahnen	-6922
▁hedon	-6923
▁nickt	-6924
▁nutzt	-6925
gekehrt	-6926
tliches	-6927
verkehr	-6928
zufügen	-6929
▁24.000	-6930
▁Großen	-6931
▁Partic	-6932
▁Sommer	-6933
▁Stylus	-6934
▁Welten	-6935
▁billig	-6936
▁dicken	-6937
▁geschm	-6938
▁global	-6939
▁messen	-6940
▁pleite	-6941
▁sitzen	-6942
geführte	-6943
tlichere	-6944
▁Filtern	-6945
▁Solaren	-6946
▁Tausend	-6947
▁Zugriff	-6948
▁besteht	-6949
▁gestern	-6950
▁höheres	-6951
▁klicken	-6952
▁mehrere	-6953
▁nannten	-6954
▁nutzten	-6955
▁schönes	-6956
▁tausend	-6957
▁unfähig	-6958
▁unrecht	-6959
▁unruhig	-6960
▁unteren	-6961
▁unterst	-6962
▁verband	-6963
▁verdopp	-6964
▁verdrei	-6965
▁verkauf	-6966
▁verviel	-6967
▁vorzudr	-6968
▁wahllos	-6969
▁waschen	-6970
▁wedelte	-6971
▁welchen	-6972
▁welcher	-6973
▁widersp	-6974
▁zurzeit	-6975
▁zwingen	-6976
▁züchten	-6977
▁Ärmsten	-6978
▁Überall	-6979
▁äußerst	-6980
▁übersch	-6981
Effizienz	-6982
Plattform	-6983
abbringen	-6984
achsenden	-6985
agenturen	-6986
allpassag	-6987
atecrisis	-6988
atorische	-6989
bewerbsor	-6990
ckerdrang	-6991
drogenase	-6992
entlichen	-6993
ernährung	-6994
fähigkeit	-6995
geschickt	-6996
goistisch	-6997
ianischen	-6998
icherheit	-6999
...?	-7000
▁ägy	-7001
Kabel	-7002
alman	-7003
heamt	-7004
ipant	-7005
üpfen	-7006
▁Okto	-7007
▁Song	-7008
▁Wäre	-7009
▁Your	-7010
▁aßen	-7011
leitum	-7012
reitag	-7013
tremen	-7014
wegung	-7015
▁Jeans	-7016
▁Photo	-7017
▁Prinz	-7018
▁abweg	-7019
▁neigt	-7020
atorien	-7021
gründet	-7022
iedeten	-7023
ümmerte	-7024
▁Afrika	-7025
▁Bauamt	-7026
▁Helfen	-7027
▁Kalman	-7028
▁Mutter	-7029
▁frustr	-7030
▁lauter	-7031
▁regeln	-7032
▁starke	-7033
▁steigt	-7034
▁tanken	-7035
braucher	-7036
drückend	-7037
erregend	-7038
etterman	-7039
ourismus	-7040
▁Annahme	-7041
▁Anstatt	-7042
▁Antwort	-7043
▁Freitag	-7044
▁Hingabe	-7045
▁Komitee	-7046
▁Oktober	-7047
▁Verwend	-7048
▁dauernd	-7049
▁genause	-7050
▁größere	-7051
▁knüpfen	-7052
▁löschte	-7053
▁pflegen	-7054
▁redeten	-7055
▁riesige	-7056
▁schöner	-7057
agssystem	-7058
drücklich	-7059
haltsamer	-7060
ichtigste	-7061
ierigkeit	-7062
iertesten	-7063
ifizieren	-7064
imakatast	-7065
iserprobt	-7066
lizierten	-7067
mensional	-7068
mentation	-7069
neidungen	-7070
ortmittel	-7071
peraturre	-7072
radienten	-7073
ressource	-7074
schließen	-7075
spersonal	-7076
spieriert	-7077
sprobleme	-7078
ternative	-7079
transfers	-7080
twicklung	-7081
twörtlich	-7082
vermögens	-7083
visorisch	-7084
zuwandeln	-7085
äsentativ	-7086
▁Afghanen	-7087
▁Amerikas	-7088
▁Andersen	-7089
▁Anliegen	-7090
▁Ansprech	-7091
▁Anstelle	-7092
▁Anstreng	-7093
▁Arbeiten	-7094
▁Ausfahrt	-7095
▁Ausschau	-7096
▁Bakteren	-7097
▁Bauwesen	-7098
▁Begriffe	-7099
feld	-7100
▁Köp	-7101
ampen	-7102
bewoh	-7103
inear	-7104
ließt	-7105
wohnt	-7106
▁1996	-7107
▁1997	-7108
▁Cros	-7109
▁Expo	-7110
▁SUVs	-7111
druckt	-7112
ebanon	-7113
iellem	-7114
ontale	-7115
sprung	-7116
stücke	-7117
▁1.800	-7118
▁Anspr	-7119
▁Fäden	-7120
▁Neuen	-7121
▁Ortes	-7122
▁Rufen	-7123
▁Wunde	-7124
▁coole	-7125
▁feind	-7126
▁knock	-7127
▁kälte	-7128
▁sitzt	-7129
▁weder	-7130
▁weiss	-7131
▁zahlt	-7132
eigenen	-7133
quellen	-7134
vollere	-7135
▁Bedarf	-7136
▁Boeing	-7137
▁Danach	-7138
▁Denken	-7139
▁Fracht	-7140
▁Köpfen	-7141
▁Rampen	-7142
▁Zimmer	-7143
▁linear	-7144
▁mahlen	-7145
▁teilen	-7146
▁verfüg	-7147
▁versie	-7148
▁wirres	-7149
▁wohler	-7150
▁zahlen	-7151
▁zählen	-7152
jähriges	-7153
schmiert	-7154
▁Anblick	-7155
▁Gremium	-7156
▁Lebanon	-7157
▁Neuheit	-7158
▁Träumen	-7159
▁Vorwahl	-7160
▁ansehen	-7161
▁gehören	-7162
▁gründen	-7163
▁niemals	-7164
▁superco	-7165
▁wachsen	-7166
▁welchem	-7167
bewohnern	-7168
chemische	-7169
▁Atemwegs	-7170
▁Aussagen	-7171
▁Beitritt	-7172
▁Beiträge	-7173
▁Beziehen	-7174
▁Brauchen	-7175
▁Brillanz	-7176
▁Building	-7177
▁Chemiker	-7178
▁Designun	-7179
▁Durchbrü	-7180
▁Einatmen	-7181
▁Einblick	-7182
▁Einfügen	-7183
▁Eingrenz	-7184
▁Erfinder	-7185
▁Existenz	-7186
▁Extremen	-7187
▁Fanbrief	-7188
▁Geflügel	-7189
▁Geliebte	-7190
▁Geländer	-7191
▁Gemeinen	-7192
▁Gesetzes	-7193
▁Gesichts	-7194
▁Gewinnen	-7195
▁Hardware	-7196
▁Hierüber	-7197
▁Hinblick	-7198
▁Infrarot	-7199
▁7.	-7200
ifax	-7201
irts	-7202
offt	-7203
▁1,3	-7204
▁1,5	-7205
▁700	-7206
▁Ult	-7207
▁Voy	-7208
äufer	-7209
▁Korn	-7210
▁Rote	-7211
▁Witz	-7212
▁anpa	-7213
▁goog	-7214
Kombin	-7215
Shirts	-7216
Wieder	-7217
legten	-7218
wender	-7219
▁Abmel	-7220
▁Doerr	-7221
▁Ereig	-7222
▁Rolli	-7223
▁Space	-7224
▁hofft	-7225
▁japan	-7226
▁wohlw	-7227
▁öffen	-7228
kologie	-7229
▁voller	-7230
Maschine	-7231
Matrizen	-7232
lösungen	-7233
weiligen	-7234
zutragen	-7235
▁Abmelde	-7236
▁Halifax	-7237
▁Voyager	-7238
▁googlen	-7239
▁niedrig	-7240
▁schwere	-7241
effizienz	-7242
leitungen	-7243
sökologie	-7244
▁Giuliani	-7245
▁Hawkings	-7246
▁Jegliche	-7247
▁Kreation	-7248
▁Kritiker	-7249
▁Liebling	-7250
▁Längeres	-7251
▁MacWorld	-7252
▁Manchmal	-7253
▁Markenen	-7254
▁Meeresch	-7255
▁Monument	-7256
▁Mögliche	-7257
▁Nachlass	-7258
▁Nahrungs	-7259
▁Nächsten	-7260
▁Priester	-7261
▁Privaten	-7262
▁Problems	-7263
▁Radiosen	-7264
▁Raumflug	-7265
▁Richtung	-7266
▁Risikoan	-7267
▁Russland	-7268
▁Sandalen	-7269
▁Schaffen	-7270
▁Scheunen	-7271
▁Schicken	-7272
▁Schlange	-7273
▁Schleife	-7274
▁Smaragde	-7275
▁Sowjetun	-7276
▁Stadtter	-7277
▁Strahlen	-7278
▁Tyrannei	-7279
▁Umdenken	-7280
▁Vermögen	-7281
▁Vernunft	-7282
▁Veränder	-7283
▁Visionen	-7284
▁Vorstell	-7285
▁Weilchen	-7286
▁Wettkämp	-7287
▁Wünschen	-7288
▁Zeitraum	-7289
▁Zugpferd	-7290
▁Zunächst	-7291
▁Zwischen	-7292
▁abgesägt	-7293
▁abhalten	-7294
▁absolute	-7295
▁aktuelle	-7296
▁allerlei	-7297
▁allesamt	-7298
▁anfassen	-7299
▁4,0	-7300
▁4,2	-7301
▁40-	-7302
▁Avi	-7303
▁Irr	-7304
▁Joy	-7305
▁rot	-7306
buchö	-7307
▁500,	-7308
▁Intu	-7309
▁John	-7310
▁Kurt	-7311
▁arme	-7312
Laptop	-7313
bewerb	-7314
design	-7315
kästen	-7316
zahler	-7317
▁Ghani	-7318
▁Lagos	-7319
▁Pause	-7320
▁Pilot	-7321
▁Super	-7322
▁Wanne	-7323
▁Weile	-7324
▁preis	-7325
▁Anzahl	-7326
▁Aspekt	-7327
▁Bioter	-7328
▁Darauf	-7329
▁Inland	-7330
▁Nummer	-7331
▁Schuhe	-7332
▁Sobald	-7333
▁Willst	-7334
▁bildet	-7335
▁fehlen	-7336
▁reiste	-7337
▁rollen	-7338
▁sorgte	-7339
▁ökonom	-7340
ierbaren	-7341
kosystem	-7342
stätigen	-7343
▁Muschel	-7344
▁Solange	-7345
▁basiert	-7346
▁befasst	-7347
▁drucken	-7348
▁drängen	-7349
▁geprägt	-7350
▁gewählt	-7351
▁gezogen	-7352
▁grossen	-7353
uerzahler	-7354
ungskraft	-7355
▁Aviation	-7356
▁Finanzen	-7357
▁Kindheit	-7358
▁Norwegen	-7359
▁angefügt	-7360
▁angenehm	-7361
▁angesagt	-7362
▁anhäufen	-7363
▁anpacken	-7364
▁anwenden	-7365
▁aufhören	-7366
▁ausgeben	-7367
▁ausreich	-7368
▁aussagen	-7369
▁aussehen	-7370
▁auswählt	-7371
▁bedenken	-7372
▁befallen	-7373
▁befragen	-7374
▁begonnen	-7375
▁begrenzt	-7376
▁behalten	-7377
▁beilegen	-7378
▁beizubeh	-7379
▁beklagen	-7380
▁benennen	-7381
▁besessen	-7382
▁besserer	-7383
▁bestickt	-7384
▁betreibt	-7385
▁bewiesen	-7386
▁billiges	-7387
▁brannten	-7388
▁brauchte	-7389
▁coolsten	-7390
▁darunter	-7391
▁denkbare	-7392
▁designen	-7393
▁diktiere	-7394
▁dortigen	-7395
▁draussen	-7396
▁dringend	-7397
▁durchaus	-7398
▁ebendies	-7399
Leck	-7400
ixar	-7401
upés	-7402
oogle	-7403
▁Char	-7404
▁Farm	-7405
▁elli	-7406
Coupés	-7407
bedarf	-7408
bücher	-7409
diodur	-7410
freien	-7411
▁Alarm	-7412
▁Henry	-7413
▁Japan	-7414
▁Pixar	-7415
▁Spots	-7416
▁Zweck	-7417
▁zukün	-7418
Einsatz	-7419
Upgrade	-7420
▁Google	-7421
▁Kleink	-7422
▁umgeht	-7423
Synthese	-7424
hinterfr	-7425
hunderts	-7426
weislich	-7427
▁Fahrrad	-7428
▁Oxfords	-7429
▁nutzlos	-7430
diodurans	-7431
lerisches	-7432
▁Anführer	-7433
▁Diarrhoe	-7434
▁Prestige	-7435
▁Sekunden	-7436
▁Vielzahl	-7437
▁effizien	-7438
▁einander	-7439
▁einengen	-7440
▁eintrete	-7441
▁eintritt	-7442
▁einzelne	-7443
▁einziger	-7444
▁erfahren	-7445
▁erinnert	-7446
▁erklärte	-7447
▁ersinnen	-7448
▁erstmals	-7449
▁erwarten	-7450
▁erwiesen	-7451
▁erwähnte	-7452
▁erzeugen	-7453
▁eröffnet	-7454
▁folgende	-7455
▁forschen	-7456
▁fortschr	-7457
▁fürchten	-7458
▁gebildet	-7459
▁gedruckt	-7460
▁gefahren	-7461
▁gefunden	-7462
▁gegenwär	-7463
▁geglaubt	-7464
▁gekommen	-7465
▁gelassen	-7466
▁genießen	-7467
▁gescheit	-7468
▁gewissen	-7469
▁gewisser	-7470
▁geöffnet	-7471
▁herumzus	-7472
▁herunter	-7473
▁hingegen	-7474
▁imstande	-7475
▁jemandes	-7476
▁kläglich	-7477
▁komische	-7478
▁kreative	-7479
▁langging	-7480
▁lebenden	-7481
▁liebsten	-7482
▁mentalen	-7483
▁mitbekam	-7484
▁mithören	-7485
▁modernen	-7486
▁mühsamen	-7487
▁nachvoll	-7488
▁nebenbei	-7489
▁nützlich	-7490
▁privaten	-7491
▁privater	-7492
▁rauszube	-7493
▁regional	-7494
▁ruiniert	-7495
▁sauberen	-7496
▁schaffte	-7497
▁schauten	-7498
▁schmeißt	-7499
-17	-7500
Null	-7501
▁1.7	-7502
-174.	-7503
Liter	-7504
ezies	-7505
fernt	-7506
uttle	-7507
▁1945	-7508
▁Logo	-7509
▁Musk	-7510
▁NACA	-7511
▁Zahn	-7512
Center	-7513
gelegt	-7514
geregt	-7515
greift	-7516
sstaat	-7517
studio	-7518
üsselt	-7519
▁1908,	-7520
▁Eitel	-7521
▁Liter	-7522
▁Ozean	-7523
▁Panor	-7524
▁Paris	-7525
▁Türme	-7526
▁Witze	-7527
▁anbot	-7528
▁flehe	-7529
▁fährt	-7530
▁fängt	-7531
Nullsum	-7532
aktuell	-7533
bensbek	-7534
fassung	-7535
monoxid	-7536
schüler	-7537
tragung	-7538
▁Center	-7539
▁Plänen	-7540
▁Rather	-7541
▁Selbst	-7542
▁Sprung	-7543
▁Umgang	-7544
▁bieten	-7545
▁bietet	-7546
▁echter	-7547
▁fügten	-7548
▁mitgek	-7549
▁orient	-7550
▁streng	-7551
fältigen	-7552
partnern	-7553
▁Geräten	-7554
▁Manager	-7555
▁Polymer	-7556
▁Schüler	-7557
▁Shuttle	-7558
▁Spezies	-7559
▁Verwalt	-7560
▁ankamen	-7561
▁erhitzt	-7562
▁gefogen	-7563
▁gesorgt	-7564
▁gewinnt	-7565
▁Ausgaben	-7566
▁Behalten	-7567
▁Nicholas	-7568
▁Panorama	-7569
▁Polymere	-7570
▁Substitu	-7571
▁ausatmen	-7572
▁entfernt	-7573
▁ergreift	-7574
▁erwerben	-7575
▁flechten	-7576
▁globaler	-7577
▁schnelle	-7578
▁schreibe	-7579
▁schuldig	-7580
▁schwarze	-7581
▁schätzte	-7582
▁sinnlich	-7583
▁stauchte	-7584
▁strömten	-7585
▁terroris	-7586
▁unmittel	-7587
▁unnötige	-7588
▁verboten	-7589
▁versieht	-7590
▁verstößt	-7591
▁versuche	-7592
▁verwende	-7593
▁vierzehn	-7594
▁voranzut	-7595
▁vorwärts	-7596
▁warteten	-7597
▁weiteres	-7598
▁wichtige	-7599
ämmen	-7600
firmen	-7601
fläche	-7602
zufuhr	-7603
▁2004,	-7604
▁Hallo	-7605
Adresse	-7606
Drucken	-7607
flächen	-7608
illerie	-7609
neutral	-7610
stücken	-7611
▁Dämmen	-7612
▁Grenze	-7613
▁Kurzes	-7614
▁Lehren	-7615
▁Tischs	-7616
▁Wunsch	-7617
▁enorme	-7618
▁grünes	-7619
▁nötige	-7620
▁trifft	-7621
▁winzig	-7622
tempfind	-7623
▁Adresse	-7624
▁Aufgabe	-7625
▁Grenzen	-7626
▁Nächste	-7627
▁Trauben	-7628
▁Wartung	-7629
▁designt	-7630
▁erwähne	-7631
▁fossile	-7632
▁führten	-7633
▁geplant	-7634
infektion	-7635
neutrales	-7636
problemen	-7637
▁Annahmen	-7638
▁Anschlag	-7639
▁Erzählen	-7640
▁Kolonien	-7641
▁Rückkehr	-7642
▁Vorgaben	-7643
▁Wahnsinn	-7644
▁betrifft	-7645
▁erfüllen	-7646
▁verflixt	-7647
▁verpasst	-7648
▁verspürt	-7649
▁winziger	-7650
▁wünschte	-7651
▁zehnstün	-7652
▁zufällig	-7653
▁zugesagt	-7654
▁zutiefst	-7655
▁Ökonomik	-7656
▁Übrigens	-7657
▁änderten	-7658
▁äußerten	-7659
▁überlebt	-7660
Klimakrise	-7661
Wimmelbuch	-7662
abefenster	-7663
akteristik	-7664
ammenleben	-7665
aterialien	-7666
atorischen	-7667
auerräumen	-7668
brittanien	-7669
dachziegel	-7670
eiübergrei	-7671
essentiell	-7672
geschehens	-7673
ientierten	-7674
ionsführer	-7675
ionshandel	-7676
iziertheit	-7677
kommentare	-7678
ktrizitäts	-7679
lanatation	-7680
landefähre	-7681
lassenheit	-7682
malerweise	-7683
management	-7684
organismen	-7685
pfindliche	-7686
pflichtung	-7687
raumschiff	-7688
schränkten	-7689
schöpfungs	-7690
seinheiten	-7691
senordnung	-7692
sfähigkeit	-7693
sproblemen	-7694
sprozessen	-7695
stellungen	-7696
teschleife	-7697
tomschmerz	-7698
weisheiten	-7699
71.	-7700
-40.	-7701
Naja	-7702
ucca	-7703
▁'56	-7704
▁0,6	-7705
▁173	-7706
▁747	-7707
▁WIR	-7708
▁ign	-7709
cerer	-7710
▁1958	-7711
▁AIDS	-7712
▁Echo	-7713
▁Hemd	-7714
▁Week	-7715
Sender	-7716
asiten	-7717
eignen	-7718
rüfung	-7719
▁Bravo	-7720
▁Chevy	-7721
▁Tempo	-7722
▁Yucca	-7723
▁Beschr	-7724
▁Heranw	-7725
▁Jugend	-7726
▁Prüfung	-7727
▁bekomme	-7728
▁Jemandes	-7729
▁Sorcerer	-7730
▁ereignen	-7731
▁erlaubte	-7732
▁wunderte	-7733
▁wünschen	-7734
▁zunächst	-7735
stauschbar	-7736
▁Abgemacht	-7737
▁Ablehnung	-7738
▁Abschluss	-7739
▁Allgemein	-7740
▁Angesicht	-7741
▁Anschauen	-7742
▁Ausländer	-7743
▁Ausschuss	-7744
▁Austausch	-7745
▁Autositze	-7746
▁Autosucht	-7747
▁Bakterium	-7748
▁Baudesign	-7749
▁Baustelle	-7750
▁Bedrohung	-7751
▁Begleitum	-7752
▁Besonders	-7753
▁Besorgnis	-7754
▁Bildbände	-7755
▁Brennzeit	-7756
▁Catherine	-7757
▁Christyne	-7758
▁Computers	-7759
▁Crossover	-7760
▁Dimension	-7761
▁Dokuments	-7762
▁Durchsatz	-7763
▁Eitelkeit	-7764
▁Entwürfen	-7765
▁Erfindung	-7766
▁Erfüllung	-7767
▁Ernsthaft	-7768
▁Erwartung	-7769
▁Europäern	-7770
▁Folgenden	-7771
▁Folgendes	-7772
▁Freiheits	-7773
▁Geheimnis	-7774
▁Genfamill	-7775
▁Geschöpfe	-7776
▁Gewinnung	-7777
▁Großteils	-7778
▁Größenord	-7779
▁Indischen	-7780
▁Inklusion	-7781
▁Intuition	-7782
▁Kassetten	-7783
▁Kellnerin	-7784
▁Klappmenü	-7785
▁Kochfeuer	-7786
▁Konsensus	-7787
▁Konsument	-7788
▁Kontinent	-7789
▁Kontrolle	-7790
▁Konzepten	-7791
▁Kreativen	-7792
▁Kreditauf	-7793
▁Künstlern	-7794
▁Laufenden	-7795
▁Leistungs	-7796
▁Letterman	-7797
▁Lieblings	-7798
▁MIllionen	-7799
Evita	-7800
Modus	-7801
korde	-7802
kürzt	-7803
▁Klub	-7804
▁Leno	-7805
▁Like	-7806
▁Rena	-7807
▁Tuns	-7808
▁evak	-7809
▁ursp	-7810
Mentor	-7811
apolis	-7812
detwas	-7813
holung	-7814
tasche	-7815
▁Basis	-7816
▁Bezos	-7817
▁Clyde	-7818
▁Datei	-7819
▁Ecole	-7820
▁Index	-7821
▁Kanal	-7822
▁Kerng	-7823
▁Lösen	-7824
▁Mycop	-7825
▁Patho	-7826
▁Phili	-7827
▁River	-7828
▁Räder	-7829
▁Story	-7830
▁Tools	-7831
▁Weltw	-7832
▁hilft	-7833
▁jener	-7834
▁oppon	-7835
▁übrig	-7836
chinson	-7837
derlage	-7838
reening	-7839
sammeln	-7840
▁Burger	-7841
▁Daumen	-7842
▁Farben	-7843
▁Klimal	-7844
▁Kniffe	-7845
▁Lustig	-7846
▁Panama	-7847
▁Scherz	-7848
▁gelöst	-7849
▁platon	-7850
▁rechne	-7851
▁tippen	-7852
andtheit	-7853
itschern	-7854
ksamkeit	-7855
▁Auftrag	-7856
▁Bildhau	-7857
▁Monopol	-7858
▁Notarzt	-7859
▁aufhört	-7860
▁getraut	-7861
▁lauscht	-7862
▁lästern	-7863
▁mittels	-7864
Kassetten	-7865
sanierung	-7866
▁Gebrüder	-7867
▁Nachbarn	-7868
▁Philippe	-7869
▁Schieber	-7870
▁anzeigen	-7871
▁nächstes	-7872
▁ungemein	-7873
▁Dateimenü	-7874
▁Manhattan	-7875
▁Mittelmaß	-7876
▁Motorrads	-7877
▁Nachfolge	-7878
▁Nachsehen	-7879
▁Netzkabel	-7880
▁Originale	-7881
▁Otterness	-7882
▁Parasiten	-7883
▁Pathogene	-7884
▁Politiker	-7885
▁Praktisch	-7886
▁Produkten	-7887
▁Programms	-7888
▁Projektes	-7889
▁Provinzen	-7890
▁Präsident	-7891
▁Rockville	-7892
▁Sauerstof	-7893
▁Schriften	-7894
▁Screening	-7895
▁Selektion	-7896
▁Sequenzen	-7897
▁Situation	-7898
▁Sitzungen	-7899
kriegs	-7900
sleute	-7901
▁Brief	-7902
▁Damit	-7903
▁Figur	-7904
▁Rutan	-7905
▁eurem	-7906
ShipOne	-7907
▁	-7908
e	-7909
n	-7910
i	-7911
s	-7912
r	-7913
a	-7914
t	-7915
d	-7916
h	-7917
u	-7918
l	-7919
c	-7920
o	-7921
m	-7922
g	-7923
,	-7924
w	-7925
b	-7926
f	-7927
.	-7928
k	-7929
z	-7930
v	-7931
S	-7932
p	-7933
ü	-7934
A	-7935
D	-7936
W	-7937
-	-7938
ä	-7939
M	-7940
I	-7941
E	-7942
U	-7943
G	-7944
ö	-7945
B	-7946
K	-7947
P	-7948
T	-7949
L	-7950
F	-7951
j	-7952
R	-7953
0	-7954
N	-7955
"	-7956
H	-7957
V	-7958
J	-7959
Z	-7960
:	-7961
?	-7962
y	-7963
ß	-7964
C	-7965
O	-7966
1	-7967
2	-7968
x	-7969
9	-7970
–	-7971
5	-7972
—	-7973
4	-7974
3	-7975
!	-7976
♪	-7977
'	-7978
q	-7979
8	-7980
Ü	-7981
7	-7982
;	-7983
6	-7984
Y	-7985
Q	-7986
Ö	-7987
[	-7988
]	-7989
X	-7990
Ä	-7991
é	-7992
/	-7993
“	-7994
„	-7995
⁄	-7996
